{"[PAD]": 0, "[CLS]": 1, "[SEP]": 2, "[MASK]": 3, "\uff0c": 4, "\u7684": 5, "\u3001": 6, "\u4e00": 7, "\u4eba": 8, "\u6709": 9, "\u662f": 10, "\u5728": 11, "\u4e2d": 12, "\u4e3a": 13, "\u548c": 14, "\u4e86": 15, "\u4e0d": 16, "\u5e74": 17, "\u5b66": 18, "\u5927": 19, "\u56fd": 20, "\u751f": 21, "\u4ee5": 22, "\u201c": 23, "\u201d": 24, "\u4f5c": 25, "\u4e1a": 26, "\u4e2a": 27, "\u4e0a": 28, "\u7528": 29, ",": 30, "\u5730": 31, "\u4f1a": 32, "\u6210": 33, "\u53d1": 34, "\u5de5": 35, "\u65f6": 36, "\u4e8e": 37, "\u7406": 38, "\u51fa": 39, "\u884c": 40, "\u8981": 41, ".": 42, "\u7b49": 43, "\u4ed6": 44, "\u5230": 45, "\u4e4b": 46, "\u8fd9": 47, "\u53ef": 48, "\u540e": 49, "\u5bb6": 50, "\u5bf9": 51, "\u80fd": 52, "\u516c": 53, "\u4e0e": 54, "\u300b": 55, "\u300a": 56, "\u4e3b": 57, "\u65b9": 58, "\u5206": 59, "\u7ecf": 60, "\u6765": 61, "\u5168": 62, "\u5176": 63, "\u90e8": 64, "\u591a": 65, "\u4ea7": 66, "\u81ea": 67, "\u6587": 68, "\u9ad8": 69, "\u52a8": 70, "\u8fdb": 71, "\u6cd5": 72, "\u5316": 73, "\uff1a": 74, "\u6211": 75, "\u9762": 76, "\uff09": 77, "\uff08": 78, "\u5b9e": 79, "\u6559": 80, "\u5efa": 81, "\u4f53": 82, "\u800c": 83, "\u957f": 84, "\u5b50": 85, "\u4e0b": 86, "\u73b0": 87, "\u5f00": 88, "\u672c": 89, "\u529b": 90, "\u5b9a": 91, "\u6027": 92, "\u8fc7": 93, "\u8bbe": 94, "\u5408": 95, "\u5c0f": 96, "\u540c": 97, "\u673a": 98, "\u5e02": 99, "\u54c1": 100, "\u6c34": 101, "\u65b0": 102, "\u5185": 103, "\u4e8b": 104, "\u4e5f": 105, "\u79cd": 106, "\u53ca": 107, "\u5236": 108, "\u5165": 109, "\u6240": 110, "\u5fc3": 111, "\u52a1": 112, "\u5c31": 113, "\u7ba1": 114, "\u4eec": 115, "\u5f97": 116, "\u5c55": 117, "\u91cd": 118, "\u6c11": 119, "\u52a0": 120, "\u533a": 121, "\u7269": 122, "\u8005": 123, "\u901a": 124, "\u5929": 125, "\u653f": 126, "\u4e09": 127, "\u7535": 128, "\u5173": 129, "\u5ea6": 130, "\u7b2c": 131, "\u540d": 132, "\u672f": 133, "\u6700": 134, "\u7cfb": 135, "\u6708": 136, "\u5916": 137, "\u8d44": 138, "\u65e5": 139, "\u4ee3": 140, "\u5458": 141, "\u5982": 142, "\u95f4": 143, "\u4f4d": 144, "\u5e76": 145, "\u4e66": 146, "\u79d1": 147, "\u6751": 148, "\u5e94": 149, "\u91cf": 150, "\u9053": 151, "\u524d": 152, "\u5f53": 153, "\u65e0": 154, "\u91cc": 155, "\u76f8": 156, "\u5e73": 157, "\u4ece": 158, "\u8ba1": 159, "\u63d0": 160, "\u4fdd": 161, "\u4efb": 162, "\u7a0b": 163, "\u6280": 164, "\u90fd": 165, "\u7814": 166, "\u5341": 167, "\u57fa": 168, "\u7279": 169, "\u597d": 170, "\u88ab": 171, "\u6216": 172, "\u76ee": 173, "\u5c06": 174, "\u4f7f": 175, "\u5c71": 176, "\u4e8c": 177, "\u8bf4": 178, "\u6570": 179, "\u70b9": 180, "\u660e": 181, "\u60c5": 182, "\u5143": 183, "\u7740": 184, "\u6536": 185, "\u7ec4": 186, "\u7136": 187, "\u7f8e": 188, "\u5404": 189, "\u7531": 190, "\u573a": 191, "\u91d1": 192, "\u5f62": 193, "\u519c": 194, "\u671f": 195, "\u56e0": 196, "\u8868": 197, "\u6b64": 198, "\u8272": 199, "\u8d77": 200, "\u8fd8": 201, "\u7acb": 202, "\u4e16": 203, "\u5b89": 204, "\u6d3b": 205, "\u4e13": 206, "\u8d28": 207, "1": 208, "\u89c4": 209, "\u793e": 210, "\u4e07": 211, "\u4fe1": 212, "\u897f": 213, "\u7edf": 214, "\u7ed3": 215, "\u8def": 216, "\u5229": 217, "\u6b21": 218, "\u5357": 219, "\u5f0f": 220, "\u610f": 221, "\u7ea7": 222, "\u5e38": 223, "\u5e08": 224, "\u6821": 225, "\u4f60": 226, "\u80b2": 227, "\u679c": 228, "\u7a76": 229, "\u53f8": 230, "\u670d": 231, "\u95e8": 232, "\u6d77": 233, "\u5bfc": 234, "\u6d41": 235, "\u9879": 236, "\u5979": 237, "\u603b": 238, "\u5904": 239, "\u4e24": 240, "\u4f20": 241, "\u4e1c": 242, "\u6b63": 243, "\u7701": 244, "\u9662": 245, "\u6237": 246, "\u624b": 247, "\u5177": 248, "2": 249, "\u539f": 250, "\u5f3a": 251, "\u5317": 252, "\u5411": 253, "\u5148": 254, "\u4f46": 255, "\u7c73": 256, "\u57ce": 257, "\u4f01": 258, "\u4ef6": 259, "\u98ce": 260, "\u519b": 261, "\u8eab": 262, "\u66f4": 263, "\u77e5": 264, "\u5df2": 265, "\u6c14": 266, "\u6218": 267, "\u81f3": 268, "\u5355": 269, "\u53e3": 270, "\u96c6": 271, "\u521b": 272, "\u89e3": 273, "\u56db": 274, "\u6807": 275, "\u4ea4": 276, "\u6bd4": 277, "\u5546": 278, "\u8bba": 279, "\u754c": 280, "\u9898": 281, "\u53d8": 282, "\u82b1": 283, "3": 284, "\u6539": 285, "\u7c7b": 286, "\u8fd0": 287, "\u6307": 288, "\u578b": 289, "\u8c03": 290, "\u5973": 291, "\u795e": 292, "\u63a5": 293, "\u9020": 294, "\u53d7": 295, "\u5e7f": 296, "\u53ea": 297, "\u59d4": 298, "\u53bb": 299, "\u5171": 300, "\u6cbb": 301, "\u8fbe": 302, "\u6301": 303, "\u6761": 304, "\u7f51": 305, "\u5934": 306, "\u6784": 307, "\u53bf": 308, "\u4e9b": 309, "\u8be5": 310, "\u53c8": 311, "\u90a3": 312, "\u60f3": 313, "\u6837": 314, "\u529e": 315, "\u6d4e": 316, "5": 317, "\u683c": 318, "\u8d23": 319, "\u8f66": 320, "\u5f88": 321, "\u65bd": 322, "\u6c42": 323, "\u5df1": 324, "\u5149": 325, "\u7cbe": 326, "\u6797": 327, "\u5b8c": 328, "\u7231": 329, "\u7ebf": 330, "\u53c2": 331, "\u5c11": 332, "\u79ef": 333, "\u6e05": 334, "\u770b": 335, "\u4f18": 336, "\u62a5": 337, "\u738b": 338, "\u76f4": 339, "\u6ca1": 340, "\u6bcf": 341, "\u636e": 342, "\u6e38": 343, "\u6548": 344, "\u611f": 345, "\u4e94": 346, "\u5f71": 347, "\u522b": 348, "\u83b7": 349, "\u9886": 350, "\u79f0": 351, "\u9009": 352, "\u4f9b": 353, "\u4e50": 354, "\u8001": 355, "\u4e48": 356, "\u53f0": 357, "\u95ee": 358, "\u5212": 359, "\u5e26": 360, "\u5668": 361, "\u6e90": 362, "\u7ec7": 363, "\u653e": 364, "\u6df1": 365, "\u5907": 366, "\u89c6": 367, "\u767d": 368, "\u529f": 369, "\u53d6": 370, "\u88c5": 371, "\u8425": 372, "\u89c1": 373, "\u8bb0": 374, "\u73af": 375, "\u961f": 376, "\u8282": 377, "\u51c6": 378, "\u77f3": 379, "\u5b83": 380, "\u56de": 381, "\u5386": 382, "\u8d1f": 383, "\u771f": 384, "\u589e": 385, "\u533b": 386, "\u8054": 387, "\u505a": 388, "\u804c": 389, "\u5bb9": 390, "\u58eb": 391, "\u5305": 392, "\u4e49": 393, "\u89c2": 394, "\u56e2": 395, "\u75c5": 396, "4": 397, "\u5e9c": 398, "\u606f": 399, "\u5219": 400, "\u8003": 401, "\u6599": 402, "\u534e": 403, "\u5dde": 404, "\u8bed": 405, "\u8bc1": 406, "\u6574": 407, "\u8ba9": 408, "\u6c5f": 409, "\u53f2": 410, "\u7a7a": 411, "\u9a8c": 412, "\u9700": 413, "\u652f": 414, "\u547d": 415, "\u7ed9": 416, "\u79bb": 417, "\u8ba4": 418, "\u827a": 419, "\u8f83": 420, "\u571f": 421, "\u53e4": 422, "\u517b": 423, "\u624d": 424, "\u5883": 425, "\u63a8": 426, "\u628a": 427, "\u5747": 428, "\u56fe": 429, "\u9645": 430, "\u65af": 431, "\u8fd1": 432, "\u7247": 433, "\u5c40": 434, "\u4fee": 435, "\u5b57": 436, "\u5fb7": 437, "\u6743": 438, "\u6b65": 439, "\u59cb": 440, "\u590d": 441, "\u8f6c": 442, "\u534f": 443, "\u5373": 444, "\u6253": 445, "\u753b": 446, "\u6295": 447, "\u51b3": 448, "\u4f55": 449, "\u7ea6": 450, "\u53cd": 451, "quot": 452, "\u8d39": 453, "\u8bae": 454, "\u62a4": 455, "\u6781": 456, "\u6cb3": 457, "\u623f": 458, "\u67e5": 459, "\u5e03": 460, "\u601d": 461, "\u5e72": 462, "\u4ef7": 463, "\u513f": 464, "\u975e": 465, "\u9a6c": 466, "\u515a": 467, "\u5956": 468, "\u6a21": 469, "\u6545": 470, "\u7f16": 471, "\u97f3": 472, "\u8303": 473, "\u8bc6": 474, "\u7387": 475, "\u5b58": 476, "\u5f15": 477, "\u5ba2": 478, "\u5c5e": 479, "\u8bc4": 480, "\u91c7": 481, "\u5c14": 482, "\u914d": 483, "\u9547": 484, "\u5ba4": 485, "\u518d": 486, "\u6848": 487, "\u76d1": 488, "\u4e60": 489, "\u6ce8": 490, "\u6839": 491, "\u514b": 492, "\u6f14": 493, "\u98df": 494, "\u65cf": 495, "\u793a": 496, "\u7403": 497, "\u72b6": 498, "\u9752": 499, "\u53f7": 500, "\u5f20": 501, "\u767e": 502, "\u7d20": 503, "\u9996": 504, "\u6613": 505, "\u70ed": 506, "\u9633": 507, "\u4eca": 508, "\u56ed": 509, "\u9632": 510, "\u7248": 511, "\u592a": 512, "\u4e61": 513, "\u82f1": 514, "6": 515, "\u6750": 516, "\u5217": 517, "\u4fbf": 518, "\u5199": 519, "\u4f4f": 520, "\u7f6e": 521, "\u5c42": 522, "\u52a9": 523, "\u786e": 524, "\u8bd5": 525, "\u96be": 526, "\u627f": 527, "\u8c61": 528, "\u5c45": 529, "10": 530, "\u9ec4": 531, "\u5feb": 532, "\u65ad": 533, "\u7ef4": 534, "\u5374": 535, "\u7ea2": 536, "\u901f": 537, "\u8fde": 538, "\u4f17": 539, "0": 540, "\u7ec6": 541, "\u6001": 542, "\u8bdd": 543, "\u5468": 544, "\u8a00": 545, "\u836f": 546, "\u57f9": 547, "\u8840": 548, "\u4ea9": 549, "\u9f99": 550, "\u8d8a": 551, "\u503c": 552, "\u51e0": 553, "\u8fb9": 554, "\u8bfb": 555, "\u672a": 556, "\u66fe": 557, "\u6d4b": 558, "\u7b97": 559, "\u4eac": 560, "\u666f": 561, "\u4f59": 562, "\u7ad9": 563, "\u4f4e": 564, "\u6e29": 565, "\u6d88": 566, "\u5fc5": 567, "\u5207": 568, "\u4f9d": 569, "\u968f": 570, "\u4e14": 571, "\u5fd7": 572, "\u536b": 573, "\u57df": 574, "\u7167": 575, "\u8bb8": 576, "\u9650": 577, "\u8457": 578, "\u9500": 579, "\u843d": 580, "\u8db3": 581, "\u9002": 582, "\u4e89": 583, "\u7b56": 584, "8": 585, "\u63a7": 586, "\u6b66": 587, "\u6309": 588, "7": 589, "\u521d": 590, "\u89d2": 591, "\u6838": 592, "\u6b7b": 593, "\u68c0": 594, "\u5bcc": 595, "\u6ee1": 596, "\u663e": 597, "\u5ba1": 598, "\u9664": 599, "\u81f4": 600, "\u4eb2": 601, "\u5360": 602, "\u5931": 603, "\u661f": 604, "\u7ae0": 605, "\u5584": 606, "\u7eed": 607, "\u5343": 608, "\u53f6": 609, "\u706b": 610, "\u526f": 611, "\u544a": 612, "\u6bb5": 613, "\u4ec0": 614, "\u58f0": 615, "\u7ec8": 616, "\u51b5": 617, "\u8d70": 618, "\u6728": 619, "\u76ca": 620, "\u620f": 621, "\u72ec": 622, "\u7eaa": 623, "\u690d": 624, "\u8d22": 625, "\u7fa4": 626, "\u516d": 627, "\u8d5b": 628, "\u8fdc": 629, "\u62c9": 630, "\u4e9a": 631, "\u5bc6": 632, "\u6392": 633, "\u8d85": 634, "\u50cf": 635, "\u8bfe": 636, "\u56f4": 637, "\u5f80": 638, "\u54cd": 639, "\u51fb": 640, "\u7597": 641, "\u5ff5": 642, "\u516b": 643, "\u4e91": 644, "\u9669": 645, "\u5f8b": 646, "\u8bf7": 647, "\u9769": 648, "\u8bd7": 649, "\u6279": 650, "\u5e95": 651, "\u538b": 652, "\u53cc": 653, "\u7537": 654, "\u8bad": 655, "\u4f8b": 656, "\u6c49": 657, "\u5347": 658, "\u62e5": 659, "\u52bf": 660, "\u9152": 661, "\u773c": 662, "\u5b98": 663, "\u724c": 664, "\u6cb9": 665, "\u66f2": 666, "\u53cb": 667, "\u671b": 668, "\u9ed1": 669, "\u6b4c": 670, "\u7b51": 671, "\u7840": 672, "\u9999": 673, "\u4ec5": 674, "\u62c5": 675, "\u62ec": 676, "\u6e56": 677, "\u4e25": 678, "\u79c0": 679, "\u5267": 680, "\u4e5d": 681, "\u4e3e": 682, "\u6267": 683, "\u5145": 684, "\u5174": 685, "\u7763": 686, "\u535a": 687, "\u8349": 688, "\u822c": 689, "\u674e": 690, "\u5065": 691, "\u559c": 692, "\u6388": 693, "\u666e": 694, "\u9884": 695, "\u7075": 696, "\u7a81": 697, "\u826f": 698, "\u6b3e": 699, "\u7f57": 700, "9": 701, "\u5fae": 702, "\u4e03": 703, "\u5f55": 704, "\u671d": 705, "\u98de": 706, "\u5b9d": 707, "\u4ee4": 708, "\u8f7b": 709, "\u52b3": 710, "\u8ddd": 711, "\u5f02": 712, "\u7b80": 713, "\u5175": 714, "\u6811": 715, "\u5e8f": 716, "\u5019": 717, "\u542b": 718, "\u798f": 719, "\u5c3d": 720, "\u7559": 721, "20": 722, "\u4e30": 723, "\u65c5": 724, "\u5f81": 725, "\u4e34": 726, "\u7834": 727, "\u79fb": 728, "\u7bc7": 729, "\u6297": 730, "\u5178": 731, "\u7aef": 732, "\u82cf": 733, "\u5947": 734, "\u6b62": 735, "\u5eb7": 736, "\u5e97": 737, "\u6bdb": 738, "\u89c9": 739, "\u6625": 740, "\u552e": 741, "\u7edc": 742, "\u964d": 743, "\u677f": 744, "\u575a": 745, "\u6bcd": 746, "\u8bb2": 747, "\u65e9": 748, "\u5370": 749, "\u7565": 750, "\u5b69": 751, "\u592b": 752, "\u85cf": 753, "\u94c1": 754, "\u5bb3": 755, "\u4e92": 756, "\u5e1d": 757, "\u7530": 758, "\u878d": 759, "\u76ae": 760, "\u5b97": 761, "\u5c81": 762, "\u8f7d": 763, "\u6790": 764, "\u6597": 765, "\u987b": 766, "\u4f24": 767, "12": 768, "\u4ecb": 769, "\u53e6": 770, "00": 771, "\u534a": 772, "\u73ed": 773, "\u9986": 774, "\u5473": 775, "\u697c": 776, "\u5361": 777, "\u5c04": 778, "\u8ff0": 779, "\u6740": 780, "\u6ce2": 781, "\u7eff": 782, "\u514d": 783, "\u5170": 784, "\u7edd": 785, "\u523b": 786, "\u77ed": 787, "\u5bdf": 788, "\u8f93": 789, "\u62e9": 790, "\u7efc": 791, "\u6742": 792, "\u4efd": 793, "\u7eb3": 794, "\u7236": 795, "\u8bcd": 796, "\u94f6": 797, "\u9001": 798, "\u5ea7": 799, "\u5de6": 800, "\u7ee7": 801, "\u56fa": 802, "\u5ba3": 803, "\u5382": 804, "\u8089": 805, "\u6362": 806, "\u8865": 807, "\u7a0e": 808, "\u6d3e": 809, "\u5957": 810, "\u6b22": 811, "\u64ad": 812, "\u5438": 813, "\u5706": 814, "\u653b": 815, "\u963f": 816, "\u8d2d": 817, "\u542c": 818, "\u53f3": 819, "\u51cf": 820, "\u6fc0": 821, "\u5df4": 822, "\u80cc": 823, "\u591f": 824, "\u9047": 825, "\u667a": 826, "\u7389": 827, "\u627e": 828, "\u5bbd": 829, "\u9648": 830, "\u7ec3": 831, "\u8ffd": 832, "\u6bd5": 833, "\u5f69": 834, "\u8f6f": 835, "\u5e2e": 836, "\u80a1": 837, "\u8363": 838, "\u6258": 839, "\u4e88": 840, "\u4f5b": 841, "\u5802": 842, "\u969c": 843, "\u7687": 844, "\u82e5": 845, "\u5b88": 846, "\u4f3c": 847, "\u5c4a": 848, "\u5f85": 849, "\u8d27": 850, "\u6563": 851, "\u989d": 852, "30": 853, "\u5c1a": 854, "\u7a7f": 855, "\u4e3d": 856, "\u9aa8": 857, "\u4eab": 858, "\u5dee": 859, "\u9488": 860, "\u7d22": 861, "\u7a33": 862, "\u5b81": 863, "\u8d35": 864, "\u9178": 865, "\u6db2": 866, "\u5510": 867, "\u64cd": 868, "\u63a2": 869, "\u73a9": 870, "\u4fc3": 871, "\u7b14": 872, "\u5e93": 873, "\u6551": 874, "\u867d": 875, "\u4e45": 876, "\u95fb": 877, "\u9876": 878, "\u5e8a": 879, "\u6e2f": 880, "\u9c7c": 881, "\u4ebf": 882, "\u767b": 883, "11": 884, "\u6c38": 885, "\u6bd2": 886, "\u6865": 887, "\u51b7": 888, "\u9b54": 889, "\u79d8": 890, "\u9646": 891, "\u60a8": 892, "\u7ae5": 893, "\u5f52": 894, "\u4fa7": 895, "\u6c99": 896, "\u67d3": 897, "\u5c01": 898, "\u7d27": 899, "\u677e": 900, "\u5ddd": 901, "\u5218": 902, "15": 903, "\u96c4": 904, "\u5e0c": 905, "\u6beb": 906, "\u5377": 907, "\u67d0": 908, "\u5b63": 909, "\u83dc": 910, "\u5ead": 911, "\u9644": 912, "\u9010": 913, "\u591c": 914, "\u5bab": 915, "\u6d32": 916, "\u9000": 917, "\u987e": 918, "\u5c3c": 919, "\u80dc": 920, "\u5242": 921, "\u7eaf": 922, "\u821e": 923, "\u9057": 924, "\u82e6": 925, "\u68a6": 926, "\u6325": 927, "\u822a": 928, "\u613f": 929, "\u8857": 930, "\u62db": 931, "\u77ff": 932, "\u590f": 933, "\u76d6": 934, "\u732e": 935, "\u600e": 936, "\u8336": 937, "\u7533": 938, "39": 939, "\u5427": 940, "\u8111": 941, "\u4ea6": 942, "\u5403": 943, "\u9891": 944, "\u5b8b": 945, "\u592e": 946, "\u5a01": 947, "\u539a": 948, "\u5757": 949, "\u51b2": 950, "\u53eb": 951, "\u719f": 952, "\u793c": 953, "\u5385": 954, "\u5426": 955, "\u6e10": 956, "\u7b11": 957, "\u94b1": 958, "\u949f": 959, "\u751a": 960, "\u725b": 961, "\u4e1d": 962, "\u9760": 963, "\u5c9b": 964, "\u7ecd": 965, "\u76d8": 966, "\u7f18": 967, "\u805a": 968, "\u9759": 969, "\u96e8": 970, "\u6c0f": 971, "\u5723": 972, "\u987a": 973, "\u5531": 974, "\u520a": 975, "\u9636": 976, "\u56f0": 977, "\u6025": 978, "\u9970": 979, "\u5f39": 980, "\u5e84": 981, "\u65e2": 982, "\u91ce": 983, "\u9634": 984, "\u6df7": 985, "\u996e": 986, "\u635f": 987, "\u9f50": 988, "\u672b": 989, "\u9519": 990, "\u8f6e": 991, "\u5b9c": 992, "\u9c9c": 993, "\u517c": 994, "\u654c": 995, "\u7c89": 996, "\u7956": 997, "\u5ef6": 998, "100": 999, "\u94a2": 1000, "\u8f91": 1001, "\u6b27": 1002, "\u786c": 1003, "\u7532": 1004, "\u8bc9": 1005, "\u518c": 1006, "\u75db": 1007, "\u8ba2": 1008, "\u7f3a": 1009, "\u665a": 1010, "\u8863": 1011, "\u4f73": 1012, "\u8109": 1013, "gt": 1014, "\u76db": 1015, "\u4e4e": 1016, "\u62df": 1017, "\u8d38": 1018, "\u6269": 1019, "\u8239": 1020, "\u4eea": 1021, "\u8c01": 1022, "\u8b66": 1023, "50": 1024, "\u505c": 1025, "\u5e2d": 1026, "\u7ade": 1027, "\u91ca": 1028, "\u5e86": 1029, "\u6c7d": 1030, "\u4ecd": 1031, "\u638c": 1032, "\u8bf8": 1033, "\u4ed9": 1034, "\u5f1f": 1035, "\u5409": 1036, "\u6d0b": 1037, "\u5965": 1038, "\u7968": 1039, "\u5371": 1040, "\u67b6": 1041, "\u4e70": 1042, "\u5f84": 1043, "\u5854": 1044, "\u4f11": 1045, "\u4ed8": 1046, "\u6076": 1047, "\u96f7": 1048, "\u6000": 1049, "\u79cb": 1050, "\u501f": 1051, "\u5de8": 1052, "\u900f": 1053, "\u8a89": 1054, "\u5398": 1055, "\u53e5": 1056, "\u8ddf": 1057, "\u80de": 1058, "\u5a5a": 1059, "\u5e7c": 1060, "\u70c8": 1061, "\u5cf0": 1062, "\u5bfb": 1063, "\u541b": 1064, "\u6c47": 1065, "\u8da3": 1066, "\u7eb8": 1067, "\u5047": 1068, "\u80a5": 1069, "\u60a3": 1070, "\u6768": 1071, "\u96c5": 1072, "\u7f6a": 1073, "\u8c13": 1074, "\u4eae": 1075, "\u8131": 1076, "\u5bfa": 1077, "\u70df": 1078, "\u5224": 1079, "\u7ee9": 1080, "\u4e71": 1081, "\u521a": 1082, "\u6444": 1083, "\u6d1e": 1084, "\u8df5": 1085, "\u7801": 1086, "\u542f": 1087, "\u52b1": 1088, "\u5448": 1089, "\u66f0": 1090, "\u5462": 1091, "\u7b26": 1092, "\u54e5": 1093, "\u5a92": 1094, "\u75be": 1095, "\u5750": 1096, "\u96ea": 1097, "\u5b54": 1098, "\u5012": 1099, "\u65e7": 1100, "\u83cc": 1101, "\u5ca9": 1102, "\u9f13": 1103, "\u4ea1": 1104, "\u8bbf": 1105, "\u75c7": 1106, "\u6697": 1107, "\u6e7e": 1108, "\u5e78": 1109, "\u6c60": 1110, "\u8ba8": 1111, "\u52aa": 1112, "\u9732": 1113, "\u5417": 1114, "\u7e41": 1115, "\u9014": 1116, "\u6b96": 1117, "\u8d25": 1118, "\u86cb": 1119, "\u63e1": 1120, "\u523a": 1121, "\u8015": 1122, "\u6d17": 1123, "\u6c89": 1124, "\u6982": 1125, "\u54c8": 1126, "\u6cdb": 1127, "\u51e1": 1128, "\u6b8b": 1129, "\u9690": 1130, "\u866b": 1131, "\u670b": 1132, "\u865a": 1133, "\u9910": 1134, "\u6b8a": 1135, "\u6162": 1136, "\u8be2": 1137, "\u8499": 1138, "\u5b59": 1139, "\u8c08": 1140, "\u9c81": 1141, "\u88c2": 1142, "\u8d34": 1143, "\u6c61": 1144, "\u6f2b": 1145, "\u8c37": 1146, "\u8fdd": 1147, "\u6cc9": 1148, "\u62ff": 1149, "\u68ee": 1150, "\u6a2a": 1151, "\u626c": 1152, "\u952e": 1153, "\u819c": 1154, "\u8fc1": 1155, "\u5c24": 1156, "\u6d89": 1157, "\u51c0": 1158, "\u8bda": 1159, "\u6298": 1160, "\u51b0": 1161, "\u68b0": 1162, "\u62cd": 1163, "\u6881": 1164, "\u6cbf": 1165, "\u907f": 1166, "\u5434": 1167, "\u60ca": 1168, "\u72af": 1169, "\u706d": 1170, "\u6e7f": 1171, "\u8ff7": 1172, "\u59d3": 1173, "\u9605": 1174, "\u706f": 1175, "\u5987": 1176, "\u89e6": 1177, "\u51a0": 1178, "\u7b54": 1179, "\u4fd7": 1180, "\u6863": 1181, "\u5c0a": 1182, "\u8c22": 1183, "\u63aa": 1184, "\u7b79": 1185, "\u7adf": 1186, "\u97e9": 1187, "\u7b7e": 1188, "\u5251": 1189, "\u9274": 1190, "\u707e": 1191, "\u8d2f": 1192, "\u8ff9": 1193, "\u6d1b": 1194, "\u6c9f": 1195, "\u675f": 1196, "\u7ffb": 1197, "\u5de7": 1198, "\u574f": 1199, "\u5f31": 1200, "\u96f6": 1201, "\u58c1": 1202, "\u679d": 1203, "\u6620": 1204, "\u6069": 1205, "\u6293": 1206, "\u5c4b": 1207, "\u547c": 1208, "\u811a": 1209, "\u7ed8": 1210, "40": 1211, "\u6de1": 1212, "\u8f96": 1213, "2010": 1214, "\u4f0a": 1215, "\u7c92": 1216, "\u6b32": 1217, "\u9707": 1218, "\u4f2f": 1219, "\u79c1": 1220, "\u84dd": 1221, "\u7518": 1222, "\u50a8": 1223, "\u80e1": 1224, "\u5356": 1225, "\u6885": 1226, "16": 1227, "\u8033": 1228, "\u7591": 1229, "\u6da6": 1230, "\u4f34": 1231, "\u6cfd": 1232, "\u7267": 1233, "\u70e7": 1234, "\u5c3e": 1235, "\u7d2f": 1236, "\u7cd6": 1237, "\u602a": 1238, "\u552f": 1239, "\u83ab": 1240, "\u7cae": 1241, "\u67f1": 1242, "18": 1243, "\u7af9": 1244, "\u7070": 1245, "\u5cb8": 1246, "\u7f29": 1247, "\u4e95": 1248, "\u4f26": 1249, "\u67d4": 1250, "\u76df": 1251, "\u73e0": 1252, "\u4e39": 1253, "amp": 1254, "\u7686": 1255, "\u54ea": 1256, "\u8fce": 1257, "\u989c": 1258, "\u8861": 1259, "\u554a": 1260, "\u5851": 1261, "\u5bd2": 1262, "13": 1263, "\u7d2b": 1264, "\u955c": 1265, "25": 1266, "\u6c27": 1267, "\u8bef": 1268, "\u4f0d": 1269, "\u5f7b": 1270, "\u5200": 1271, "\u89c8": 1272, "\u708e": 1273, "\u6d25": 1274, "\u8010": 1275, "\u79e6": 1276, "\u5c16": 1277, "\u6f6e": 1278, "\u63cf": 1279, "\u6d53": 1280, "\u53ec": 1281, "\u7981": 1282, "\u963b": 1283, "\u80f6": 1284, "\u8bd1": 1285, "\u8179": 1286, "\u6cf0": 1287, "\u4e43": 1288, "\u76d0": 1289, "\u6f5c": 1290, "\u9e21": 1291, "\u8bfa": 1292, "\u904d": 1293, "2000": 1294, "\u7eb9": 1295, "\u51ac": 1296, "\u7259": 1297, "\u9ebb": 1298, "\u8f85": 1299, "\u732a": 1300, "\u5f03": 1301, "\u695a": 1302, "\u7f8a": 1303, "\u664b": 1304, "14": 1305, "\u9e1f": 1306, "\u8d75": 1307, "\u6d01": 1308, "\u8c0b": 1309, "\u9686": 1310, "\u6ed1": 1311, "60": 1312, "2008": 1313, "\u7c4d": 1314, "\u81e3": 1315, "\u6731": 1316, "\u6ce5": 1317, "\u58a8": 1318, "\u8f86": 1319, "\u5899": 1320, "\u6d6a": 1321, "\u59d0": 1322, "\u8d4f": 1323, "\u7eb5": 1324, "2006": 1325, "\u62d4": 1326, "\u500d": 1327, "\u7eb7": 1328, "\u6469": 1329, "\u58ee": 1330, "\u82d7": 1331, "\u504f": 1332, "\u585e": 1333, "\u8d21": 1334, "\u4ec1": 1335, "\u5b87": 1336, "\u5375": 1337, "\u74e6": 1338, "\u67aa": 1339, "\u8986": 1340, "\u6bbf": 1341, "\u5211": 1342, "\u8d2b": 1343, "\u5988": 1344, "\u5e45": 1345, "\u5e55": 1346, "\u5fc6": 1347, "\u4e01": 1348, "\u4f30": 1349, "\u5e9f": 1350, "\u8428": 1351, "\u820d": 1352, "\u8be6": 1353, "\u65d7": 1354, "\u5c97": 1355, "\u6d2a": 1356, "80": 1357, "\u8d1d": 1358, "2009": 1359, "\u8fc5": 1360, "\u51ed": 1361, "\u52c7": 1362, "\u96d5": 1363, "\u594f": 1364, "\u65cb": 1365, "\u6770": 1366, "\u7164": 1367, "\u9635": 1368, "\u4e58": 1369, "\u6eaa": 1370, "\u5949": 1371, "\u755c": 1372, "\u6311": 1373, "\u660c": 1374, "\u7855": 1375, "\u5e99": 1376, "\u60e0": 1377, "\u8584": 1378, "\u9003": 1379, "\u7206": 1380, "\u54f2": 1381, "\u6d59": 1382, "\u73cd": 1383, "\u70bc": 1384, "\u680f": 1385, "\u66b4": 1386, "\u5e01": 1387, "\u9694": 1388, "\u5428": 1389, "\u503e": 1390, "\u5609": 1391, "\u5740": 1392, "\u9676": 1393, "\u7ed5": 1394, "\u8bca": 1395, "\u906d": 1396, "\u6843": 1397, "\u9b42": 1398, "\u517d": 1399, "\u8c46": 1400, "\u95f2": 1401, "\u7bb1": 1402, "\u62d3": 1403, "\u71c3": 1404, "\u88c1": 1405, "\u6676": 1406, "\u6389": 1407, "\u8102": 1408, "\u6eb6": 1409, "\u987f": 1410, "\u80a4": 1411, "\u8651": 1412, "\u9b3c": 1413, "2007": 1414, "\u704c": 1415, "\u5f90": 1416, "\u9f84": 1417, "\u9675": 1418, "\u604b": 1419, "\u4fb5": 1420, "\u5761": 1421, "\u5bff": 1422, "\u52e4": 1423, "\u78e8": 1424, "\u59b9": 1425, "\u745e": 1426, "\u7f13": 1427, "\u8f74": 1428, "\u9ea6": 1429, "\u7fbd": 1430, "\u54a8": 1431, "\u51dd": 1432, "\u9ed8": 1433, "\u9a7b": 1434, "\u6562": 1435, "\u503a": 1436, "17": 1437, "\u6d6e": 1438, "\u5e7b": 1439, "\u682a": 1440, "\u6d45": 1441, "\u656c": 1442, "\u654f": 1443, "\u9677": 1444, "\u51e4": 1445, "\u575b": 1446, "\u864e": 1447, "\u4e4c": 1448, "\u94dc": 1449, "\u5fa1": 1450, "\u4e73": 1451, "\u8baf": 1452, "\u5faa": 1453, "\u5708": 1454, "\u808c": 1455, "\u5999": 1456, "\u594b": 1457, "\u5fd8": 1458, "\u95ed": 1459, "\u5893": 1460, "21": 1461, "\u6c64": 1462, "\u5fe0": 1463, "2005": 1464, "\u8de8": 1465, "\u6015": 1466, "\u632f": 1467, "\u5bbe": 1468, "\u8dd1": 1469, "\u5c4f": 1470, "\u5766": 1471, "\u7c97": 1472, "\u79df": 1473, "\u60b2": 1474, "\u4f1f": 1475, "\u62dc": 1476, "24": 1477, "\u59bb": 1478, "\u8d5e": 1479, "\u5144": 1480, "\u5bbf": 1481, "\u7891": 1482, "\u8c8c": 1483, "\u52d2": 1484, "\u7f5a": 1485, "\u593a": 1486, "\u5076": 1487, "\u622a": 1488, "\u7ea4": 1489, "2011": 1490, "\u9f7f": 1491, "\u90d1": 1492, "\u8058": 1493, "\u507f": 1494, "\u6276": 1495, "\u8c6a": 1496, "\u6167": 1497, "\u8df3": 1498, "the": 1499, "\u758f": 1500, "\u83b1": 1501, "\u8150": 1502, "\u63d2": 1503, "\u6050": 1504, "\u90ce": 1505, "\u8f9e": 1506, "\u6302": 1507, "\u5a18": 1508, "\u80bf": 1509, "\u5f92": 1510, "\u4f0f": 1511, "\u78c1": 1512, "\u676f": 1513, "\u4e1b": 1514, "\u65e8": 1515, "\u7434": 1516, "19": 1517, "\u70ae": 1518, "\u9192": 1519, "\u7816": 1520, "\u66ff": 1521, "\u8f9b": 1522, "\u6696": 1523, "\u9501": 1524, "\u675c": 1525, "\u80a0": 1526, "\u5b64": 1527, "\u996d": 1528, "\u8138": 1529, "\u90ae": 1530, "\u8d37": 1531, "lt": 1532, "\u4fc4": 1533, "\u6bc1": 1534, "\u8377": 1535, "\u8c10": 1536, "\u8352": 1537, "\u809d": 1538, "\u94fe": 1539, "2004": 1540, "2012": 1541, "\u5c3a": 1542, "\u5c18": 1543, "\u63f4": 1544, "a": 1545, "\u75ab": 1546, "\u5d07": 1547, "\u6062": 1548, "\u624e": 1549, "\u4f38": 1550, "\u5e7d": 1551, "\u62b5": 1552, "\u80f8": 1553, "\u8c31": 1554, "\u8212": 1555, "\u8feb": 1556, "200": 1557, "\u7545": 1558, "\u6ce1": 1559, "\u5cad": 1560, "\u55b7": 1561, "70": 1562, "\u7a97": 1563, "\u6377": 1564, "\u5b8f": 1565, "\u80af": 1566, "90": 1567, "\u72c2": 1568, "\u94fa": 1569, "\u9a91": 1570, "\u62bd": 1571, "\u5238": 1572, "\u4ff1": 1573, "\u5fbd": 1574, "\u80c6": 1575, "\u788e": 1576, "\u9080": 1577, "\u8910": 1578, "\u65a4": 1579, "\u6d82": 1580, "\u8d4b": 1581, "\u7f72": 1582, "\u9897": 1583, "2003": 1584, "\u6e20": 1585, "\u4eff": 1586, "\u8fea": 1587, "\u7089": 1588, "\u8f89": 1589, "\u6db5": 1590, "\u8017": 1591, "22": 1592, "\u8fd4": 1593, "\u90bb": 1594, "\u6591": 1595, "\u8463": 1596, "\u9b4f": 1597, "\u5348": 1598, "\u5a31": 1599, "\u6d74": 1600, "\u5c3f": 1601, "\u66fc": 1602, "\u9505": 1603, "\u67f3": 1604, "\u8230": 1605, "\u642d": 1606, "\u65c1": 1607, "\u5b85": 1608, "\u8d8b": 1609, "of": 1610, "\u51c9": 1611, "\u8d62": 1612, "\u4f19": 1613, "\u7237": 1614, "\u5ef7": 1615, "\u6234": 1616, "\u58e4": 1617, "\u5976": 1618, "\u9875": 1619, "\u7384": 1620, "\u9a7e": 1621, "\u9614": 1622, "\u8f68": 1623, "\u6717": 1624, "\u6355": 1625, "\u80be": 1626, "\u7a3f": 1627, "\u60ef": 1628, "\u4faf": 1629, "\u4e59": 1630, "\u6e21": 1631, "\u7a0d": 1632, "\u6068": 1633, "\u810f": 1634, "2002": 1635, "\u59c6": 1636, "\u8154": 1637, "\u62b1": 1638, "\u6746": 1639, "\u5782": 1640, "\u8d74": 1641, "\u8d76": 1642, "\u83b2": 1643, "\u8fbd": 1644, "\u8350": 1645, "\u65e6": 1646, "\u5996": 1647, "2013": 1648, "\u7a00": 1649, "\u9a71": 1650, "\u6c88": 1651, "\u5f79": 1652, "\u6653": 1653, "\u4ead": 1654, "\u4ef2": 1655, "\u6fb3": 1656, "500": 1657, "\u70b8": 1658, "\u7eea": 1659, "28": 1660, "\u9655": 1661, "and": 1662, "23": 1663, "\u6052": 1664, "\u5821": 1665, "\u7ea0": 1666, "\u4ec7": 1667, "\u61c2": 1668, "\u7126": 1669, "\u641c": 1670, "s": 1671, "\u5fcd": 1672, "\u8d24": 1673, "\u6dfb": 1674, "i": 1675, "\u827e": 1676, "\u8d64": 1677, "\u72b9": 1678, "\u5c1d": 1679, "\u9526": 1680, "\u7a3b": 1681, "\u64b0": 1682, "\u586b": 1683, "\u8870": 1684, "\u683d": 1685, "\u90aa": 1686, "\u7c98": 1687, "\u8dc3": 1688, "\u684c": 1689, "\u80c3": 1690, "\u60ac": 1691, "c": 1692, "\u7ffc": 1693, "\u5f7c": 1694, "\u7761": 1695, "\u66f9": 1696, "\u5237": 1697, "\u6446": 1698, "\u6089": 1699, "\u950b": 1700, "26": 1701, "\u6447": 1702, "\u62a2": 1703, "\u4e4f": 1704, "\u5ec9": 1705, "\u9f20": 1706, "\u76fe": 1707, "\u74f7": 1708, "\u6291": 1709, "\u57c3": 1710, "\u90a6": 1711, "\u9042": 1712, "\u5bf8": 1713, "\u6e14": 1714, "\u7965": 1715, "\u80ce": 1716, "\u7275": 1717, "\u58f3": 1718, "\u751c": 1719, "\u5353": 1720, "\u74dc": 1721, "\u88ad": 1722, "\u9075": 1723, "\u5de1": 1724, "\u9006": 1725, "\u739b": 1726, "\u97f5": 1727, "2001": 1728, "\u6851": 1729, "\u9177": 1730, "\u8d56": 1731, "\u6842": 1732, "\u90e1": 1733, "\u8083": 1734, "\u4ed3": 1735, "\u5bc4": 1736, "\u5858": 1737, "\u7624": 1738, "300": 1739, "\u78b3": 1740, "\u641e": 1741, "\u71d5": 1742, "\u84b8": 1743, "\u5141": 1744, "\u5ffd": 1745, "\u659c": 1746, "\u7a77": 1747, "\u90c1": 1748, "\u56ca": 1749, "\u5954": 1750, "\u6606": 1751, "\u76c6": 1752, "\u6108": 1753, "\u9012": 1754, "1000": 1755, "\u9ece": 1756, "\u796d": 1757, "\u6012": 1758, "\u8f88": 1759, "\u817a": 1760, "\u6eda": 1761, "\u6682": 1762, "\u90ed": 1763, "\u7483": 1764, "\u8e2a": 1765, "\u82b3": 1766, "\u788d": 1767, "\u80ba": 1768, "\u72f1": 1769, "\u5192": 1770, "\u9601": 1771, "\u7802": 1772, "35": 1773, "\u82cd": 1774, "\u63ed": 1775, "\u8e0f": 1776, "\u9887": 1777, "\u67c4": 1778, "\u95ea": 1779, "\u5b5d": 1780, "\u8461": 1781, "\u817e": 1782, "\u830e": 1783, "\u9e23": 1784, "\u64a4": 1785, "\u4ef0": 1786, "\u4f10": 1787, "\u4e18": 1788, "\u65bc": 1789, "\u6cea": 1790, "\u8361": 1791, "\u6270": 1792, "\u7eb2": 1793, "\u62fc": 1794, "\u6b23": 1795, "\u7ebd": 1796, "\u764c": 1797, "\u5806": 1798, "27": 1799, "\u83f2": 1800, "b": 1801, "\u62ab": 1802, "\u6316": 1803, "\u5bd3": 1804, "\u5c65": 1805, "\u6350": 1806, "\u609f": 1807, "\u4e7e": 1808, "\u5634": 1809, "\u94bb": 1810, "\u62f3": 1811, "\u5439": 1812, "\u67cf": 1813, "\u9065": 1814, "\u629a": 1815, "\u5fe7": 1816, "\u8d60": 1817, "\u9738": 1818, "\u8270": 1819, "\u6dcb": 1820, "\u732b": 1821, "\u5e05": 1822, "\u5948": 1823, "\u5be8": 1824, "\u6ef4": 1825, "\u9f3b": 1826, "\u6398": 1827, "\u72d7": 1828, "\u9a76": 1829, "\u6734": 1830, "\u62c6": 1831, "\u60dc": 1832, "\u73bb": 1833, "\u6263": 1834, "\u8404": 1835, "\u852c": 1836, "\u5ba0": 1837, "2014": 1838, "\u7f34": 1839, "\u8d6b": 1840, "\u51ef": 1841, "\u6ee8": 1842, "\u4e54": 1843, "\u8170": 1844, "\u846c": 1845, "\u5b5f": 1846, "\u543e": 1847, "\u679a": 1848, "\u5733": 1849, "\u5fd9": 1850, "\u626b": 1851, "\u676d": 1852, "\u51cc": 1853, "1998": 1854, "\u68af": 1855, "\u4e08": 1856, "\u96b6": 1857, "1999": 1858, "\u526a": 1859, "\u76d7": 1860, "\u64c5": 1861, "\u7586": 1862, "\u5f2f": 1863, "\u643a": 1864, "\u62d2": 1865, "\u79d2": 1866, "\u9881": 1867, "\u9187": 1868, "\u5272": 1869, "\u6d46": 1870, "\u59d1": 1871, "\u7238": 1872, "\u87ba": 1873, "\u7a57": 1874, "\u7f1d": 1875, "\u6148": 1876, "\u559d": 1877, "\u74f6": 1878, "\u6f0f": 1879, "\u60a0": 1880, "\u730e": 1881, "\u756a": 1882, "\u5b55": 1883, "\u4f2a": 1884, "\u6f02": 1885, "\u817f": 1886, "\u5410": 1887, "\u575d": 1888, "\u6ee4": 1889, "\u51fd": 1890, "\u5300": 1891, "\u5077": 1892, "\u6d69": 1893, "\u77db": 1894, "\u50e7": 1895, "\u8fa8": 1896, "\u4fca": 1897, "\u68c9": 1898, "\u94f8": 1899, "29": 1900, "\u8bde": 1901, "\u4e27": 1902, "\u5939": 1903, "to": 1904, "\u59ff": 1905, "\u775b": 1906, "\u6dee": 1907, "\u9600": 1908, "\u59dc": 1909, "45": 1910, "\u5c38": 1911, "\u731b": 1912, "1997": 1913, "\u82bd": 1914, "\u8d26": 1915, "\u65f1": 1916, "\u9189": 1917, "\u5f04": 1918, "\u574a": 1919, "\u70e4": 1920, "\u8427": 1921, "\u77e3": 1922, "\u96fe": 1923, "\u5021": 1924, "\u699c": 1925, "\u5f17": 1926, "\u6c28": 1927, "\u6735": 1928, "\u9521": 1929, "\u888b": 1930, "\u62e8": 1931, "\u6e58": 1932, "\u5cb3": 1933, "\u70e6": 1934, "\u80a9": 1935, "\u7199": 1936, "\u70ad": 1937, "\u5a46": 1938, "\u68cb": 1939, "\u7985": 1940, "\u7a74": 1941, "\u5b99": 1942, "\u6c57": 1943, "\u8273": 1944, "\u5112": 1945, "\u53d9": 1946, "\u6668": 1947, "\u9888": 1948, "\u5ce1": 1949, "\u62d6": 1950, "\u70c2": 1951, "\u8302": 1952, "\u6212": 1953, "\u98d8": 1954, "\u6c1b": 1955, "\u8482": 1956, "\u649e": 1957, "\u74e3": 1958, "\u7bad": 1959, "\u53db": 1960, "1996": 1961, "31": 1962, "\u978b": 1963, "\u52b2": 1964, "\u795d": 1965, "\u5a1c": 1966, "\u9972": 1967, "\u4f8d": 1968, "\u8bf1": 1969, "\u53f9": 1970, "\u5362": 1971, "\u5f25": 1972, "32": 1973, "\u9f0e": 1974, "\u53a6": 1975, "\u5c48": 1976, "\u6155": 1977, "\u9b45": 1978, "m": 1979, "\u53a8": 1980, "\u5ac1": 1981, "\u7ef5": 1982, "\u903c": 1983, "\u626e": 1984, "\u53d4": 1985, "\u9176": 1986, "\u71e5": 1987, "\u72fc": 1988, "\u6ecb": 1989, "\u6c41": 1990, "\u8f90": 1991, "\u6028": 1992, "\u7fc5": 1993, "\u4f69": 1994, "\u5751": 1995, "\u65ec": 1996, "\u6c83": 1997, "\u5269": 1998, "\u86c7": 1999, "\u9896": 2000, "\u7bee": 2001, "\u9510": 2002, "\u4fa0": 2003, "\u5339": 2004, "\u5524": 2005, "\u718a": 2006, "\u6f20": 2007, "\u8fdf": 2008, "\u6566": 2009, "\u96cc": 2010, "\u8c28": 2011, "\u5a74": 2012, "\u6d78": 2013, "\u78f7": 2014, "\u7b52": 2015, "2015": 2016, "\u6ee9": 2017, "\u57cb": 2018, "\u6846": 2019, "\u5f18": 2020, "\u5415": 2021, "\u78b0": 2022, "\u7eba": 2023, "\u786b": 2024, "\u582a": 2025, "\u5951": 2026, "\u871c": 2027, "\u84c4": 2028, "1995": 2029, "\u9610": 2030, "apos": 2031, "\u50b2": 2032, "\u78b1": 2033, "\u6670": 2034, "\u72ed": 2035, "\u6491": 2036, "\u53c9": 2037, "\u5367": 2038, "\u52ab": 2039, "\u95f9": 2040, "\u8d50": 2041, "\u9093": 2042, "\u5974": 2043, "\u6e89": 2044, "\u6d66": 2045, "\u8e48": 2046, "\u8fa3": 2047, "\u9063": 2048, "\u8000": 2049, "\u8036": 2050, "\u7fe0": 2051, "t": 2052, "\u53e0": 2053, "\u8fc8": 2054, "\u970d": 2055, "\u78a7": 2056, "\u6070": 2057, "\u810a": 2058, "\u662d": 2059, "\u6478": 2060, "\u9971": 2061, "\u8d54": 2062, "\u6cc4": 2063, "\u54ed": 2064, "\u8bbc": 2065, "\u901d": 2066, "\u903b": 2067, "\u5eca": 2068, "\u64e6": 2069, "\u6e17": 2070, "\u5f70": 2071, "you": 2072, "\u537f": 2073, "\u65fa": 2074, "\u5baa": 2075, "36": 2076, "\u9877": 2077, "\u5986": 2078, "\u966a": 2079, "\u845b": 2080, "\u4ed4": 2081, "\u6dc0": 2082, "\u7ff0": 2083, "\u60a6": 2084, "\u7a46": 2085, "\u716e": 2086, "\u8fa9": 2087, "\u5f26": 2088, "in": 2089, "\u4e32": 2090, "\u62bc": 2091, "\u8680": 2092, "\u9022": 2093, "\u8d3a": 2094, "\u710a": 2095, "\u714c": 2096, "\u7f14": 2097, "\u60d1": 2098, "\u9e7f": 2099, "\u8881": 2100, "\u7cca": 2101, "\u9038": 2102, "\u821f": 2103, "\u52c3": 2104, "\u4fa6": 2105, "\u6daf": 2106, "\u8521": 2107, "\u8f9f": 2108, "\u6d8c": 2109, "\u67af": 2110, "\u75d5": 2111, "\u75bc": 2112, "\u8389": 2113, "\u67f4": 2114, "1993": 2115, "\u7709": 2116, "1992": 2117, "\u7f62": 2118, "\u50ac": 2119, "\u8854": 2120, "\u79c9": 2121, "\u5983": 2122, "\u9e3f": 2123, "\u5085": 2124, "400": 2125, "\u8fb0": 2126, "\u806a": 2127, "\u54b8": 2128, "1994": 2129, "\u6247": 2130, "\u76c8": 2131, "\u52d8": 2132, "\u4f50": 2133, "\u6cca": 2134, "\u629b": 2135, "\u642c": 2136, "\u7262": 2137, "\u5bb4": 2138, "\u7272": 2139, "\u8d3e": 2140, "\u6458": 2141, "\u59fb": 2142, "\u614e": 2143, "\u5e15": 2144, "\u5fcc": 2145, "\u5352": 2146, "\u5915": 2147, "\u535c": 2148, "\u60df": 2149, "\u633a": 2150, "\u5d16": 2151, "\u7092": 2152, "\u7235": 2153, "\u51bb": 2154, "\u6912": 2155, "\u9cde": 2156, "\u7978": 2157, "\u6f6d": 2158, "\u814a": 2159, "\u848b": 2160, "\u7f20": 2161, "\u5bc2": 2162, "\u7720": 2163, "\u51af": 2164, "\u82af": 2165, "\u69fd": 2166, "\u540a": 2167, "33": 2168, "150": 2169, "\u804a": 2170, "\u6897": 2171, "\u5ae9": 2172, "\u51f6": 2173, "\u94ed": 2174, "\u723d": 2175, "\u7b4b": 2176, "\u97e6": 2177, "\u813e": 2178, "\u94dd": 2179, "\u80a2": 2180, "\u680b": 2181, "\u52fe": 2182, "\u840c": 2183, "\u6e0a": 2184, "\u63a9": 2185, "\u72ee": 2186, "\u6492": 2187, "\u6f06": 2188, "\u9a97": 2189, "\u79bd": 2190, "38": 2191, "\u8574": 2192, "\u576a": 2193, "\u6d12": 2194, "\u51b6": 2195, "\u5179": 2196, "\u692d": 2197, "\u55bb": 2198, "\u6cf5": 2199, "\u54c0": 2200, "\u7fd4": 2201, "1990": 2202, "\u68d2": 2203, "\u829d": 2204, "x": 2205, "\u6251": 2206, "3000": 2207, "\u6bc5": 2208, "\u884d": 2209, "\u60e8": 2210, "\u75af": 2211, "\u6b3a": 2212, "\u8d3c": 2213, "\u8096": 2214, "\u8f70": 2215, "\u5de2": 2216, "\u81c2": 2217, "\u8f69": 2218, "\u6241": 2219, "\u6dd8": 2220, "\u72ac": 2221, "\u5bb0": 2222, "\u7960": 2223, "\u6321": 2224, "\u538c": 2225, "\u5e10": 2226, "\u8702": 2227, "\u72d0": 2228, "\u5783": 2229, "\u6602": 2230, "\u573e": 2231, "\u79e9": 2232, "\u82ac": 2233, "\u77ac": 2234, "\u67a2": 2235, "\u820c": 2236, "\u5507": 2237, "\u68d5": 2238, "1984": 2239, "\u971e": 2240, "\u971c": 2241, "\u8247": 2242, "\u4fa8": 2243, "\u9e64": 2244, "\u7845": 2245, "\u9756": 2246, "\u54e6": 2247, "\u524a": 2248, "\u6ccc": 2249, "\u5960": 2250, "d": 2251, "\u540f": 2252, "\u5937": 2253, "\u5496": 2254, "\u5f6d": 2255, "\u7a91": 2256, "\u80c1": 2257, "\u80aa": 2258, "120": 2259, "\u8d1e": 2260, "\u529d": 2261, "\u9499": 2262, "\u67dc": 2263, "\u9e2d": 2264, "75": 2265, "\u5e9e": 2266, "\u5154": 2267, "\u8346": 2268, "\u4e19": 2269, "\u7eb1": 2270, "34": 2271, "\u6208": 2272, "\u85e4": 2273, "\u77e9": 2274, "\u6cf3": 2275, "\u60e7": 2276, "\u94c3": 2277, "\u6e34": 2278, "\u80c0": 2279, "\u8896": 2280, "\u4e38": 2281, "\u72e0": 2282, "\u8c6b": 2283, "\u832b": 2284, "1985": 2285, "\u6d47": 2286, "\u83e9": 2287, "\u6c2f": 2288, "\u5561": 2289, "1988": 2290, "\u8471": 2291, "37": 2292, "\u68a8": 2293, "\u9709": 2294, "\u8106": 2295, "\u6c22": 2296, "\u5df7": 2297, "\u4e11": 2298, "\u5a03": 2299, "\u953b": 2300, "\u6124": 2301, "\u8d2a": 2302, "\u8776": 2303, "1991": 2304, "\u5389": 2305, "\u95fd": 2306, "\u6d51": 2307, "\u65a9": 2308, "\u6816": 2309, "l": 2310, "\u8305": 2311, "\u660f": 2312, "\u9f9f": 2313, "\u7897": 2314, "\u68da": 2315, "\u6ede": 2316, "\u6170": 2317, "600": 2318, "2016": 2319, "\u658b": 2320, "\u8679": 2321, "\u5c6f": 2322, "\u841d": 2323, "\u997c": 2324, "\u7a84": 2325, "\u6f58": 2326, "\u7ee3": 2327, "\u4e22": 2328, "\u82a6": 2329, "\u9ccd": 2330, "42": 2331, "\u88d5": 2332, "\u8a93": 2333, "\u817b": 2334, "48": 2335, "95": 2336, "\u9508": 2337, "\u541e": 2338, "\u8700": 2339, "\u5566": 2340, "\u626d": 2341, "5000": 2342, "\u5de9": 2343, "\u9ad3": 2344, "1987": 2345, "\u52a3": 2346, "\u62cc": 2347, "\u8c0a": 2348, "\u6d9b": 2349, "\u52cb": 2350, "\u90ca": 2351, "\u838e": 2352, "\u75f4": 2353, "\u7a9d": 2354, "\u9a70": 2355, "1986": 2356, "\u8dcc": 2357, "\u7b3c": 2358, "\u6324": 2359, "\u6ea2": 2360, "1989": 2361, "\u9699": 2362, "55": 2363, "\u9e70": 2364, "\u8bcf": 2365, "\u5e3d": 2366, "65": 2367, "\u8292": 2368, "\u722c": 2369, "\u51f8": 2370, "\u727a": 2371, "\u7194": 2372, "\u543b": 2373, "\u7aed": 2374, "\u7626": 2375, "\u51a5": 2376, "800": 2377, "\u640f": 2378, "\u5c61": 2379, "\u6614": 2380, "\u843c": 2381, "\u6101": 2382, "\u6349": 2383, "\u7fc1": 2384, "\u6016": 2385, "\u6c6a": 2386, "\u70ef": 2387, "\u75b2": 2388, "\u7f38": 2389, "\u6e83": 2390, "85": 2391, "\u6cfc": 2392, "\u5256": 2393, "\u6da8": 2394, "\u6a61": 2395, "\u8c1c": 2396, "\u6094": 2397, "\u5acc": 2398, "\u76d2": 2399, "\u82ef": 2400, "\u51f9": 2401, "\u7ef3": 2402, "\u754f": 2403, "\u7f50": 2404, "\u867e": 2405, "\u67ef": 2406, "\u9091": 2407, "\u99a8": 2408, "\u5146": 2409, "\u5e16": 2410, "\u964c": 2411, "\u7984": 2412, "\u57ab": 2413, "\u58f6": 2414, "\u900a": 2415, "\u9aa4": 2416, "\u7940": 2417, "\u6674": 2418, "\u84ec": 2419, "e": 2420, "\u82de": 2421, "\u714e": 2422, "\u83ca": 2423, "\u5824": 2424, "\u752b": 2425, "\u62f1": 2426, "\u6c2e": 2427, "\u7f55": 2428, "\u8236": 2429, "\u4f1e": 2430, "\u59da": 2431, "\u5f13": 2432, "\u5d4c": 2433, "1983": 2434, "1982": 2435, "\u9988": 2436, "\u743c": 2437, "\u566a": 2438, "\u96c0": 2439, "\u5475": 2440, "\u6c5d": 2441, "\u7109": 2442, "\u9640": 2443, "\u80fa": 2444, "\u60e9": 2445, "\u6cbc": 2446, "\u67a3": 2447, "\u6850": 2448, "\u9171": 2449, "\u906e": 2450, "\u5b62": 2451, "\u949d": 2452, "\u5440": 2453, "\u9525": 2454, "\u59a5": 2455, "\u917f": 2456, "\u5deb": 2457, "\u95ef": 2458, "\u6ca7": 2459, "\u5d29": 2460, "\u854a": 2461, "\u916c": 2462, "\u5320": 2463, "\u8eb2": 2464, "43": 2465, "\u558a": 2466, "98": 2467, "\u7433": 2468, "46": 2469, "\u7ece": 2470, "\u5589": 2471, "\u51f0": 2472, "\u62ac": 2473, "93": 2474, "\u81a8": 2475, "\u76f2": 2476, "\u5265": 2477, "\u5582": 2478, "\u5eb8": 2479, "\u5978": 2480, "n": 2481, "\u94a9": 2482, "\u5188": 2483, "\u52df": 2484, "\u82d1": 2485, "\u674f": 2486, "\u6749": 2487, "\u8fb1": 2488, "\u968b": 2489, "\u85aa": 2490, "\u7ed2": 2491, "1980": 2492, "99": 2493, "\u6b20": 2494, "\u5c09": 2495, "r": 2496, "\u6500": 2497, "\u62b9": 2498, "\u5dfe": 2499, "1958": 2500, "\u6e23": 2501, "\u82f9": 2502, "\u7334": 2503, "\u6084": 2504, "\u5c60": 2505, "41": 2506, "\u9882": 2507, "\u6e5b": 2508, "\u9b44": 2509, "\u98a0": 2510, "1949": 2511, "\u5446": 2512, "\u7ca4": 2513, "\u5c82": 2514, "\u5a07": 2515, "\u6691": 2516, "44": 2517, "56": 2518, "52": 2519, "\u9e45": 2520, "\u7b5b": 2521, "\u818f": 2522, "\u6a31": 2523, "p": 2524, "\u7f06": 2525, "\u8944": 2526, "\u745f": 2527, "\u606d": 2528, "\u6cfb": 2529, "\u532a": 2530, "\u516e": 2531, "\u607c": 2532, "\u541f": 2533, "\u4ed5": 2534, "\u853d": 2535, "\u9a84": 2536, "\u8695": 2537, "\u65a5": 2538, "\u6905": 2539, "\u59ec": 2540, "\u8c26": 2541, "for": 2542, "\u690e": 2543, "\u6405": 2544, "\u5378": 2545, "\u6cab": 2546, "\u601c": 2547, "\u574e": 2548, "\u7470": 2549, "1978": 2550, "\u94a6": 2551, "h": 2552, "\u62fe": 2553, "\u5395": 2554, "\u5f8c": 2555, "\u903e": 2556, "\u85af": 2557, "\u886c": 2558, "\u94be": 2559, "\u5d14": 2560, "\u7a3d": 2561, "\u86ee": 2562, "\u6bb7": 2563, "\u6652": 2564, "47": 2565, "\u83c7": 2566, "\u81ed": 2567, "\u5f27": 2568, "\u64ce": 2569, "\u7cb9": 2570, "\u7eac": 2571, "1500": 2572, "\u7130": 2573, "\u73b2": 2574, "\u7ae3": 2575, "\u5492": 2576, "\u6b47": 2577, "\u7cd5": 2578, "\u8bf5": 2579, "\u8328": 2580, "\u59ae": 2581, "\u916f": 2582, "\u9e9f": 2583, "\u5351": 2584, "\u6d4f": 2585, "\u54bd": 2586, "\u7f69": 2587, "\u8231": 2588, "\u9175": 2589, "\u6655": 2590, "\u987d": 2591, "\u8d41": 2592, "\u54ac": 2593, "\u67ab": 2594, "\u5180": 2595, "\u8d2e": 2596, "\u8258": 2597, "\u4e8f": 2598, "\u859b": 2599, "\u7011": 2600, "\u7bc6": 2601, "\u8180": 2602, "\u6cb8": 2603, "\u96cd": 2604, "\u54b3": 2605, "\u5c39": 2606, "\u6109": 2607, "\u70f9": 2608, "\u5760": 2609, "\u52ff": 2610, "\u94a0": 2611, "64": 2612, "\u5764": 2613, "\u7538": 2614, "\u5885": 2615, "\u95f8": 2616, "\u85fb": 2617, "\u97e7": 2618, "\u9102": 2619, "58": 2620, "51": 2621, "91": 2622, "j": 2623, "\u7476": 2624, "\u8206": 2625, "\u5938": 2626, "54": 2627, "\u857e": 2628, "\u6817": 2629, "\u548f": 2630, "\u4e1e": 2631, "\u6284": 2632, "\u9e4f": 2633, "\u5f0a": 2634, "\u6a90": 2635, "\u9a82": 2636, "\u4ec6": 2637, "\u5cfb": 2638, "\u722a": 2639, "\u8d5a": 2640, "\u5e06": 2641, "\u5a36": 2642, "\u561b": 2643, "\u9493": 2644, "\u6f84": 2645, "\u731c": 2646, "1979": 2647, "\u88d4": 2648, "\u6292": 2649, "\u94c5": 2650, "\u5349": 2651, "\u5f66": 2652, "f": 2653, "\u5220": 2654, "\u8877": 2655, "\u79b9": 2656, "\u5be1": 2657, "\u84b2": 2658, "\u780c": 2659, "on": 2660, "\u68f1": 2661, "72": 2662, "\u62d8": 2663, "\u5835": 2664, "\u96c1": 2665, "\u4ec4": 2666, "\u836b": 2667, "53": 2668, "k": 2669, "1981": 2670, "\u7948": 2671, "49": 2672, "\u5962": 2673, "\u8d4c": 2674, "\u5bc7": 2675, "3d": 2676, "\u96a7": 2677, "\u644a": 2678, "\u96c7": 2679, "\u5366": 2680, "\u5a49": 2681, "\u6572": 2682, "\u6323": 2683, "\u76b1": 2684, "\u865e": 2685, "\u4ea8": 2686, "\u61c8": 2687, "\u633d": 2688, "\u73ca": 2689, "\u9976": 2690, "\u6ee5": 2691, "\u952f": 2692, "\u95f7": 2693, "it": 2694, "\u916e": 2695, "\u8650": 2696, "\u5151": 2697, "\u50f5": 2698, "\u50bb": 2699, "62": 2700, "\u6ca6": 2701, "\u5dc5": 2702, "\u97ad": 2703, "\u68b3": 2704, "\u8d63": 2705, "\u950c": 2706, "\u5e90": 2707, "\u8587": 2708, "\u5eb5": 2709, "57": 2710, "96": 2711, "\u6168": 2712, "\u809a": 2713, "\u5984": 2714, "g": 2715, "\u4ed7": 2716, "\u7ed1": 2717, "2017": 2718, "\u6795": 2719, "\u7261": 2720, "000": 2721, "\u80d6": 2722, "\u6caa": 2723, "\u5792": 2724, "\u635e": 2725, "\u6367": 2726, "\u7ad6": 2727, "\u8721": 2728, "\u6869": 2729, "\u53a2": 2730, "\u5b75": 2731, "\u9ecf": 2732, "\u62ef": 2733, "63": 2734, "\u8c2d": 2735, "68": 2736, "\u8bc8": 2737, "\u707f": 2738, "\u91c9": 2739, "1956": 2740, "\u88f9": 2741, "\u94ae": 2742, "\u4fe9": 2743, "o": 2744, "\u7076": 2745, "\u5f5d": 2746, "\u87f9": 2747, "\u6da9": 2748, "\u918b": 2749, "110": 2750, "\u5319": 2751, "\u6b67": 2752, "\u5239": 2753, "\u73ab": 2754, "\u68d8": 2755, "\u6a59": 2756, "\u51d1": 2757, "\u6876": 2758, "\u5203": 2759, "\u4f3d": 2760, "4000": 2761, "\u785d": 2762, "\u6021": 2763, "\u7c7d": 2764, "\u655e": 2765, "\u6df3": 2766, "\u77ee": 2767, "\u9576": 2768, "\u621a": 2769, "\u5e62": 2770, "\u6da1": 2771, "66": 2772, "\u5c27": 2773, "\u819d": 2774, "is": 2775, "\u54c9": 2776, "\u8086": 2777, "\u7554": 2778, "\u6eaf": 2779, "97": 2780, "\u5a9a": 2781, "\u70d8": 2782, "01": 2783, "67": 2784, "\u7a83": 2785, "\u711a": 2786, "\u6f9c": 2787, "\u611a": 2788, "\u68f5": 2789, "\u4e5e": 2790, "86": 2791, "78": 2792, "\u4f51": 2793, "76": 2794, "iphone": 2795, "\u66a8": 2796, "\u6577": 2797, "\u9965": 2798, "\u4fef": 2799, "\u8513": 2800, "v": 2801, "05": 2802, "88": 2803, "\u66ae": 2804, "\u780d": 2805, "\u90b5": 2806, "\u4ed1": 2807, "\u6bd7": 2808, "\u527f": 2809, "\u9980": 2810, "180": 2811, "\u9524": 2812, "\u522e": 2813, "1950": 2814, "\u68ad": 2815, "\u6467": 2816, "250": 2817, "\u63a0": 2818, "\u8eaf": 2819, "\u8be1": 2820, "\u5308": 2821, "\u4fa3": 2822, "\u80da": 2823, "\u75ae": 2824, "59": 2825, "\u88d9": 2826, "windows": 2827, "\u88f8": 2828, "08": 2829, "\u584c": 2830, "\u5413": 2831, "\u4fd8": 2832, "\u7cd9": 2833, "\u85e9": 2834, "\u6977": 2835, "\u7f9e": 2836, "with": 2837, "\u9c8d": 2838, "\u5e18": 2839, "\u88e4": 2840, "\u5b9b": 2841, "\u61be": 2842, "\u6853": 2843, "\u75f0": 2844, "\u5bde": 2845, "\u9a9a": 2846, "\u60f9": 2847, "\u7b0b": 2848, "\u8403": 2849, "92": 2850, "\u6813": 2851, "61": 2852, "\u632b": 2853, "\u77e2": 2854, "\u57a6": 2855, "09": 2856, "\u5784": 2857, "\u7ef8": 2858, "\u51c4": 2859, "your": 2860, "\u9540": 2861, "\u718f": 2862, "\u9489": 2863, "1945": 2864, "led": 2865, "\u7caa": 2866, "\u7f05": 2867, "\u6d3d": 2868, "\u9798": 2869, "\u8517": 2870, "82": 2871, "\u8fc4": 2872, "\u6c90": 2873, "\u51ff": 2874, "\u52c9": 2875, "\u6628": 2876, "\u5598": 2877, "700": 2878, "\u7239": 2879, "\u5c51": 2880, "\u803b": 2881, "\u6ca5": 2882, "\u5eb6": 2883, "\u6d85": 2884, "\u8155": 2885, "\u888d": 2886, "\u61d2": 2887, "\u961c": 2888, "\u55dc": 2889, "\u6714": 2890, "1200": 2891, "\u849c": 2892, "\u6c9b": 2893, "\u575f": 2894, "\u8f7f": 2895, "\u5580": 2896, "\u7b1b": 2897, "\u72c4": 2898, "\u997f": 2899, "\u84c9": 2900, "\u6ce3": 2901, "\u7a9f": 2902, "130": 2903, "\u8c79": 2904, "\u5c7f": 2905, "73": 2906, "\u5d1b": 2907, "\u8fe6": 2908, "\u8be0": 2909, "\u8d2c": 2910, "\u8165": 2911, "83": 2912, "\u94a5": 2913, "\u55e3": 2914, "\u745c": 2915, "07": 2916, "\u5026": 2917, "\u840e": 2918, "\u62e6": 2919, "\u51a4": 2920, "\u8bbd": 2921, "\u6f47": 2922, "\u8c23": 2923, "\u8d81": 2924, "1960": 2925, "\u59a8": 2926, "84": 2927, "\u8d29": 2928, "74": 2929, "\u840d": 2930, "\u7aa6": 2931, "\u7e82": 2932, "\u7f00": 2933, "\u77eb": 2934, "\u6dd1": 2935, "\u58a9": 2936, "\u68b5": 2937, "\u6cbe": 2938, "\u6deb": 2939, "\u4e56": 2940, "\u6c70": 2941, "\u839e": 2942, "81": 2943, "\u65f7": 2944, "\u6d4a": 2945, "\u631a": 2946, "\u64bc": 2947, "69": 2948, "87": 2949, "\u6c1f": 2950, "\u7115": 2951, "06": 2952, "\u5e9a": 2953, "\u6380": 2954, "\u8bc0": 2955, "kg": 2956, "\u76fc": 2957, "71": 2958, "\u75b9": 2959, "\u7a96": 2960, "\u5306": 2961, "\u53a5": 2962, "\u8f67": 2963, "89": 2964, "\u6df9": 2965, "94": 2966, "160": 2967, "\u4ea5": 2968, "\u9e26": 2969, "\u68cd": 2970, "\u8c05": 2971, "\u6b7c": 2972, "\u6c55": 2973, "\u632a": 2974, "\u8681": 2975, "\u655b": 2976, "\u9b41": 2977, "\u7574": 2978, "\u70ab": 2979, "\u4e2b": 2980, "\u594e": 2981, "\u83f1": 2982, "\u6c82": 2983, "\u6495": 2984, "\u960e": 2985, "\u8a79": 2986, "03": 2987, "\u86db": 2988, "77": 2989, "\u9761": 2990, "\u77bb": 2991, "\u54b1": 2992, "\u6127": 2993, "\u70f7": 2994, "\u7578": 2995, "\u7078": 2996, "\u7738": 2997, "that": 2998, "\u89c5": 2999, "\u829c": 3000, "1955": 3001, "\u5ed3": 3002, "\u658c": 3003, "\u8e81": 3004, "\u9e93": 3005, "\u6454": 3006, "1970": 3007, "\u70db": 3008, "\u7779": 3009, "\u5b5c": 3010, "\u7f1a": 3011, "\u5815": 3012, "\u663c": 3013, "\u777f": 3014, "\u742a": 3015, "\u7409": 3016, "\u8d31": 3017, "6000": 3018, "\u6e1d": 3019, "\u8dcb": 3020, "1959": 3021, "\u8304": 3022, "1957": 3023, "\u821c": 3024, "1976": 3025, "\u8bdb": 3026, "1952": 3027, "\u6363": 3028, "\u8299": 3029, "04": 3030, "1961": 3031, "\u501a": 3032, "1938": 3033, "\u9170": 3034, "\u6f88": 3035, "\u614c": 3036, "\u5e1c": 3037, "\u98a4": 3038, "\u9647": 3039, "1962": 3040, "02": 3041, "\u988c": 3042, "\u6627": 3043, "\u4f63": 3044, "\u7737": 3045, "\u5f99": 3046, "\u79be": 3047, "\u902e": 3048, "1948": 3049, "79": 3050, "\u83b9": 3051, "\u789f": 3052, "\u68a2": 3053, "\u673d": 3054, "\u7ca5": 3055, "\u5587": 3056, "1964": 3057, "\u6986": 3058, "\u9a73": 3059, "\u6954": 3060, "1965": 3061, "\u5578": 3062, "\u808b": 3063, "dna": 3064, "\u8e22": 3065, "1975": 3066, "1937": 3067, "u": 3068, "\u508d": 3069, "\u6854": 3070, "\u80b4": 3071, "\u5455": 3072, "\u65ed": 3073, "\u57e0": 3074, "\u8d3f": 3075, "\u66dd": 3076, "\u6756": 3077, "\u4fed": 3078, "\u6829": 3079, "1953": 3080, "\u65a7": 3081, "\u9541": 3082, "\u533e": 3083, "\u8e29": 3084, "\u6a58": 3085, "\u9885": 3086, "1963": 3087, "\u56da": 3088, "\u86d9": 3089, "1946": 3090, "\u81b3": 3091, "\u575e": 3092, "\u7410": 3093, "\u8367": 3094, "\u761f": 3095, "\u6da4": 3096, "\u80f0": 3097, "\u886b": 3098, "\u566c": 3099, "\u7696": 3100, "\u90b1": 3101, "\u57d4": 3102, "\u6c40": 3103, "\u7fa1": 3104, "\u7750": 3105, "\u8475": 3106, "\u803f": 3107, "\u7cdf": 3108, "\u5384": 3109, "\u79e7": 3110, "\u9ed4": 3111, "\u8e44": 3112, "140": 3113, "\u6f33": 3114, "\u978d": 3115, "\u8c0f": 3116, "\u814b": 3117, "\u7c07": 3118, "\u68a7": 3119, "\u620e": 3120, "1977": 3121, "\u69b4": 3122, "\u8be3": 3123, "\u5ba6": 3124, "\u82d4": 3125, "\u63fd": 3126, "\u7c27": 3127, "\u72f8": 3128, "\u9619": 3129, "\u626f": 3130, "\u800d": 3131, "\u68e0": 3132, "\u8113": 3133, "\u70eb": 3134, "\u7fd8": 3135, "\u82ad": 3136, "\u8eba": 3137, "\u7f81": 3138, "\u85c9": 3139, "\u62d0": 3140, "1966": 3141, "\u9661": 3142, "1954": 3143, "\u6f13": 3144, "\u68fa": 3145, "\u94a7": 3146, "\u7405": 3147, "\u6254": 3148, "\u5bdd": 3149, "\u7eda": 3150, "\u71ac": 3151, "\u9a7f": 3152, "\u90b9": 3153, "\u6760": 3154, "1972": 3155, "w": 3156, "\u7ee5": 3157, "\u7aa5": 3158, "\u6643": 3159, "\u6e2d": 3160, "1947": 3161, "\u6a0a": 3162, "\u946b": 3163, "\u7941": 3164, "\u964b": 3165, "\u54fa": 3166, "\u5830": 3167, "\u795b": 3168, "y": 3169, "\u6893": 3170, "\u5d0e": 3171, "1968": 3172, "\u5b7d": 3173, "\u8774": 3174, "\u851a": 3175, "\u6296": 3176, "\u82df": 3177, "\u8087": 3178, "\u6e9c": 3179, "\u7ec5": 3180, "\u59be": 3181, "1940": 3182, "\u8dea": 3183, "\u6c81": 3184, "q": 3185, "1973": 3186, "\u83bd": 3187, "\u864f": 3188, "be": 3189, "\u7784": 3190, "\u7838": 3191, "\u7a1a": 3192, "\u50da": 3193, "\u5d2d": 3194, "\u8fed": 3195, "\u7682": 3196, "\u5f6c": 3197, "\u96cf": 3198, "ip": 3199, "\u7fb2": 3200, "\u7f15": 3201, "\u7ede": 3202, "\u4fde": 3203, "\u7c3f": 3204, "\u8038": 3205, "\u5ed6": 3206, "\u5632": 3207, "can": 3208, "1969": 3209, "\u7fcc": 3210, "\u6984": 3211, "\u88f4": 3212, "\u69d0": 3213, "1939": 3214, "\u6d3c": 3215, "\u7741": 3216, "1951": 3217, "\u707c": 3218, "\u5564": 3219, "\u81c0": 3220, "\u5565": 3221, "\u6fd2": 3222, "\u919b": 3223, "\u5ce8": 3224, "\u846b": 3225, "\u608d": 3226, "\u7b28": 3227, "\u5631": 3228, "1935": 3229, "\u7a20": 3230, "360": 3231, "\u97f6": 3232, "1941": 3233, "\u965b": 3234, "\u5ced": 3235, "1974": 3236, "\u915a": 3237, "\u7fe9": 3238, "\u8205": 3239, "8000": 3240, "\u5bc5": 3241, "1936": 3242, "\u8549": 3243, "\u962e": 3244, "\u57a3": 3245, "\u622e": 3246, "me": 3247, "\u8dbe": 3248, "\u7280": 3249, "\u5dcd": 3250, "re": 3251, "\u9704": 3252, "1942": 3253, "1930": 3254, "\u996a": 3255, "sci": 3256, "\u79c6": 3257, "\u6715": 3258, "\u9a7c": 3259, "\u809b": 3260, "\u63c9": 3261, "ipad": 3262, "\u6960": 3263, "\u5c9a": 3264, "\u75a1": 3265, "\u5e27": 3266, "\u67d1": 3267, "iso9001": 3268, "\u8d4e": 3269, "\u900d": 3270, "\u6ec7": 3271, "\u748b": 3272, "\u7901": 3273, "\u9edb": 3274, "\u949e": 3275, "\u90a2": 3276, "\u6da7": 3277, "\u5288": 3278, "\u77b3": 3279, "\u781a": 3280, "\u9a74": 3281, "1944": 3282, "\u9523": 3283, "\u6073": 3284, "\u6805": 3285, "\u5435": 3286, "\u725f": 3287, "\u6c8c": 3288, "\u77a9": 3289, "\u54aa": 3290, "\u6bef": 3291, "\u70b3": 3292, "\u6de4": 3293, "\u76ef": 3294, "\u828b": 3295, "\u7c9f": 3296, "350": 3297, "\u6808": 3298, "\u620a": 3299, "\u76cf": 3300, "\u5cea": 3301, "\u62c2": 3302, "\u6687": 3303, "\u9165": 3304, "\u6c5b": 3305, "900": 3306, "pc": 3307, "\u56a3": 3308, "2500": 3309, "\u8f7c": 3310, "\u5992": 3311, "\u533f": 3312, "1934": 3313, "\u9e3d": 3314, "\u8749": 3315, "cd": 3316, "\u75d2": 3317, "\u5bb5": 3318, "\u762b": 3319, "1927": 3320, "1943": 3321, "\u74a7": 3322, "\u6c72": 3323, "1971": 3324, "\u51a2": 3325, "\u788c": 3326, "\u7422": 3327, "\u78c5": 3328, "\u5364": 3329, "105": 3330, "\u5254": 3331, "\u8c0e": 3332, "\u5729": 3333, "\u914c": 3334, "\u634f": 3335, "\u6e3a": 3336, "\u5ab3": 3337, "1933": 3338, "\u7a79": 3339, "\u8c25": 3340, "\u9a8f": 3341, "\u54e8": 3342, "\u9a86": 3343, "\u4e52": 3344, "10000": 3345, "\u6479": 3346, "\u515c": 3347, "\u67ff": 3348, "\u55a7": 3349, "\u545c": 3350, "\u6361": 3351, "\u6a44": 3352, "\u9017": 3353, "\u745a": 3354, "\u5450": 3355, "\u6a80": 3356, "\u8f9c": 3357, "\u598a": 3358, "\u796f": 3359, "1931": 3360, "\u82f7": 3361, "don": 3362, "\u8859": 3363, "\u7b03": 3364, "\u82b8": 3365, "\u9716": 3366, "\u8354": 3367, "\u95fa": 3368, "\u7f8c": 3369, "\u82b9": 3370, "dvd": 3371, "\u54fc": 3372, "\u7cef": 3373, "\u543c": 3374, "\u8543": 3375, "\u5d69": 3376, "\u77f6": 3377, "\u7efd": 3378, "\u576f": 3379, "\u5a20": 3380, "1928": 3381, "\u7977": 3382, "\u9530": 3383, "qq": 3384, "by": 3385, "\u7600": 3386, "108": 3387, "\u5c90": 3388, "1932": 3389, "\u8335": 3390, "\u7b5d": 3391, "\u6590": 3392, "\u80bd": 3393, "\u6b49": 3394, "1929": 3395, "\u55fd": 3396, "\u6064": 3397, "\u6c76": 3398, "\u8042": 3399, "\u6a1f": 3400, "\u64d2": 3401, "\u9e43": 3402, "\u62d9": 3403, "\u9ca4": 3404, "\u7d6e": 3405, "\u9119": 3406, "\u5f6a": 3407, "ipod": 3408, "z": 3409, "\u55d3": 3410, "\u589f": 3411, "\u9abc": 3412, "\u6e24": 3413, "\u50fb": 3414, "\u8c41": 3415, "\u8c15": 3416, "\u835f": 3417, "\u59e8": 3418, "\u5a77": 3419, "\u6320": 3420, "\u54c7": 3421, "\u7099": 3422, "220": 3423, "\u8bc5": 3424, "\u5a25": 3425, "\u54d1": 3426, "\u9631": 3427, "\u5ac9": 3428, "\u572d": 3429, "\u4e53": 3430, "\u6a71": 3431, "\u6b6a": 3432, "\u79a7": 3433, "\u7529": 3434, "\u5777": 3435, "\u664f": 3436, "\u9a6f": 3437, "\u8bb3": 3438, "\u6cd7": 3439, "\u715e": 3440, "my": 3441, "\u6dc4": 3442, "\u502a": 3443, "\u5993": 3444, "\u7a8d": 3445, "\u7aff": 3446, "\u895f": 3447, "\u5321": 3448, "\u949b": 3449, "\u4f88": 3450, "ll": 3451, "\u4f84": 3452, "\u94f2": 3453, "\u54ee": 3454, "\u53a9": 3455, "1967": 3456, "\u4ea2": 3457, "101": 3458, "\u8f95": 3459, "\u763e": 3460, "\u8f8a": 3461, "\u72e9": 3462, "\u63b7": 3463, "\u6f4d": 3464, "240": 3465, "\u4f3a": 3466, "\u563f": 3467, "\u5f08": 3468, "\u560e": 3469, "\u9668": 3470, "\u5a05": 3471, "1800": 3472, "\u660a": 3473, "\u7281": 3474, "\u5c41": 3475, "\u8718": 3476, "170": 3477, "\u5be5": 3478, "\u6ed5": 3479, "\u6bd9": 3480, "as": 3481, "\u6d9d": 3482, "\u8c1b": 3483, "all": 3484, "\u90dd": 3485, "\u75f9": 3486, "\u6eba": 3487, "\u6c7e": 3488, "\u8110": 3489, "\u9985": 3490, "\u8822": 3491, "\u73c0": 3492, "\u814c": 3493, "\u627c": 3494, "\u6555": 3495, "\u8393": 3496, "\u5ce6": 3497, "\u94ec": 3498, "\u8c0d": 3499, "\u70ac": 3500, "\u9f9a": 3501, "\u9e92": 3502, "\u7766": 3503, "\u78fa": 3504, "\u5401": 3505, "\u63ba": 3506, "\u70c1": 3507, "\u9776": 3508, "or": 3509, "\u5703": 3510, "\u9975": 3511, "\u8936": 3512, "\u5a1f": 3513, "\u6ed4": 3514, "\u6328": 3515, "android": 3516, "\u8912": 3517, "\u80f1": 3518, "cpu": 3519, "\u6656": 3520, "\u8116": 3521, "\u57a2": 3522, "\u6289": 3523, "\u5189": 3524, "\u8327": 3525, "from": 3526, "\u6e32": 3527, "\u766b": 3528, "125": 3529, "de": 3530, "\u60bc": 3531, "\u5ac2": 3532, "\u7792": 3533, "\u7eb6": 3534, "\u8098": 3535, "\u7096": 3536, "\u701a": 3537, "\u768b": 3538, "\u59ca": 3539, "\u9890": 3540, "1600": 3541, "\u4fcf": 3542, "\u988a": 3543, "gps": 3544, "\u8bb6": 3545, "\u672d": 3546, "\u5955": 3547, "\u78ca": 3548, "\u9556": 3549, "\u9050": 3550, "\u773a": 3551, "\u8151": 3552, "boss": 3553, "\u7426": 3554, "\u868a": 3555, "\u7a9c": 3556, "\u6e0d": 3557, "\u55ef": 3558, "102": 3559, "1926": 3560, "touch": 3561, "\u592f": 3562, "1300": 3563, "\u7b19": 3564, "\u8611": 3565, "\u7fe1": 3566, "\u7898": 3567, "\u536f": 3568, "\u557c": 3569, "\u9753": 3570, "\u8f8d": 3571, "\u83ba": 3572, "\u8eac": 3573, "\u733f": 3574, "\u675e": 3575, "\u7729": 3576, "\u8654": 3577, "\u51cb": 3578, "\u9041": 3579, "\u6cfe": 3580, "\u5c94": 3581, "\u7f9f": 3582, "\u5f1b": 3583, "\u5a04": 3584, "\u8338": 3585, "\u7693": 3586, "\u5cd9": 3587, "\u9005": 3588, "\u9082": 3589, "\u82c7": 3590, "\u6979": 3591, "\u8e72": 3592, "\u62e2": 3593, "\u7504": 3594, "\u9cc3": 3595, "104": 3596, "\u90af": 3597, "\u6346": 3598, "\u52fa": 3599, "450": 3600, "\u9149": 3601, "\u835a": 3602, "\u5511": 3603, "\u81fb": 3604, "\u8f97": 3605, "\u7ef0": 3606, "\u5f8a": 3607, "\u69a8": 3608, "\u82db": 3609, "\u8d66": 3610, "\u76d4": 3611, "\u58ec": 3612, "\u604d": 3613, "\u7f09": 3614, "2020": 3615, "\u71a8": 3616, "7000": 3617, "\u6fa1": 3618, "\u6868": 3619, "\u5323": 3620, "\u5162": 3621, "106": 3622, "\u9a6d": 3623, "x1": 3624, "\u954d": 3625, "\u5b70": 3626, "\u7eee": 3627, "\u998f": 3628, "\u8747": 3629, "\u4f7c": 3630, "\u9cb8": 3631, "128": 3632, "\u54ce": 3633, "\u88f3": 3634, "\u8715": 3635, "\u56bc": 3636, "\u563b": 3637, "web": 3638, "\u5e87": 3639, "\u7ee2": 3640, "\u5029": 3641, "\u94b5": 3642, "ii": 3643, "\u606a": 3644, "\u5e37": 3645, "\u8386": 3646, "\u67e0": 3647, "\u85d5": 3648, "\u783e": 3649, "115": 3650, "\u7eca": 3651, "\u5599": 3652, "\u5742": 3653, "\u5f98": 3654, "\u8340": 3655, "\u77a7": 3656, "\u86fe": 3657, "1925": 3658, "\u6666": 3659, "ph": 3660, "mm": 3661, "\u94ce": 3662, "107": 3663, "\u7d0a": 3664, "\u951a": 3665, "\u916a": 3666, "\u7a37": 3667, "\u804b": 3668, "\u95f5": 3669, "\u71b9": 3670, "\u5195": 3671, "\u8beb": 3672, "\u73d1": 3673, "\u66e6": 3674, "\u7bf7": 3675, "320": 3676, "\u8fe5": 3677, "\u8616": 3678, "\u80e4": 3679, "103": 3680, "\u6aac": 3681, "\u747e": 3682, "\u94b3": 3683, "\u904f": 3684, "\u8f84": 3685, "\u5b09": 3686, "\u9685": 3687, "ps": 3688, "\u79c3": 3689, "112": 3690, "\u5e1b": 3691, "\u8046": 3692, "\u82a5": 3693, "\u8bec": 3694, "1100": 3695, "\u631f": 3696, "\u5b95": 3697, "2018": 3698, "\u9e4a": 3699, "\u7436": 3700, "\u819b": 3701, "mv": 3702, "\u5140": 3703, "gb": 3704, "\u61ff": 3705, "\u78be": 3706, "\u53ee": 3707, "863": 3708, "\u8815": 3709, "\u8b6c": 3710, "\u7f2e": 3711, "\u70fd": 3712, "\u598d": 3713, "\u6995": 3714, "260": 3715, "1920": 3716, "\u9083": 3717, "\u7119": 3718, "\u5018": 3719, "210": 3720, "\u620c": 3721, "\u8339": 3722, "\u8c5a": 3723, "\u667e": 3724, "\u6d52": 3725, "\u73ba": 3726, "\u919a": 3727, "\u7950": 3728, "\u70bd": 3729, "this": 3730, "\u7f2a": 3731, "\u51db": 3732, "\u5669": 3733, "\u6e85": 3734, "\u6bcb": 3735, "\u69db": 3736, "ei": 3737, "are": 3738, "\u5ae1": 3739, "\u8760": 3740, "\u5a34": 3741, "\u7a23": 3742, "\u7980": 3743, "\u58d1": 3744, "\u6b86": 3745, "\u6556": 3746, "cm": 3747, "ios": 3748, "\u502d": 3749, "\u631b": 3750, "\u4f83": 3751, "\u868c": 3752, "\u5480": 3753, "\u76ce": 3754, "\u6b89": 3755, "\u5c91": 3756, "\u6d5a": 3757, "\u8c2c": 3758, "\u72e1": 3759, "1924": 3760, "\u7678": 3761, "280": 3762, "\u901b": 3763, "\u803d": 3764, "\u4ffa": 3765, "\u74a8": 3766, "\u5df3": 3767, "\u831c": 3768, "\u90f8": 3769, "\u84b4": 3770, "\u7435": 3771, "we": 3772, "230": 3773, "\u53e9": 3774, "\u6cf8": 3775, "\u587e": 3776, "one": 3777, "\u7a3c": 3778, "reg": 3779, "\u4fae": 3780, "\u9502": 3781, "\u66d9": 3782, "3500": 3783, "up": 3784, "\u85b0": 3785, "\u5a7f": 3786, "\u60f6": 3787, "\u62ed": 3788, "\u7bf1": 3789, "\u606c": 3790, "\u6dcc": 3791, "\u70d9": 3792, "\u889c": 3793, "\u5fb5": 3794, "\u6177": 3795, "\u592d": 3796, "\u5676": 3797, "\u8398": 3798, "135": 3799, "\u9e33": 3800, "\u6ba1": 3801, "\u8682": 3802, "1900": 3803, "\u618e": 3804, "\u5583": 3805, "\u4f5a": 3806, "\u9f9b": 3807, "\u6f62": 3808, "\u70c3": 3809, "at": 3810, "\u5cb1": 3811, "\u6f7a": 3812, "109": 3813, "\u8862": 3814, "\u7480": 3815, "5cm": 3816, "1400": 3817, "\u9e6d": 3818, "\u63e3": 3819, "\u75e2": 3820, "know": 3821, "\u53ae": 3822, "\u6c13": 3823, "\u6020": 3824, "no": 3825, "nbsp": 3826, "\u75d8": 3827, "\u7852": 3828, "\u954c": 3829, "\u4e4d": 3830, "\u54af": 3831, "\u60ec": 3832, "not": 3833, "\u6866": 3834, "\u9a87": 3835, "\u6789": 3836, "\u8717": 3837, "\u777e": 3838, "\u6dc7": 3839, "\u8018": 3840, "\u5a13": 3841, "\u5f3c": 3842, "\u9ccc": 3843, "\u55c5": 3844, "gdp": 3845, "\u72d9": 3846, "\u7bab": 3847, "\u6726": 3848, "\u6930": 3849, "\u80e5": 3850, "\u4e10": 3851, "\u9642": 3852, "\u553e": 3853, "\u9cc4": 3854, "\u67da": 3855, "\u8c12": 3856, "journal": 3857, "\u620d": 3858, "1912": 3859, "\u5201": 3860, "\u9e3e": 3861, "\u7f2d": 3862, "\u9ab8": 3863, "\u94e3": 3864, "\u914b": 3865, "\u874e": 3866, "\u638f": 3867, "\u8026": 3868, "\u602f": 3869, "\u5a32": 3870, "\u62c7": 3871, "\u6c79": 3872, "\u80e7": 3873, "\u75a4": 3874, "118": 3875, "\u787c": 3876, "\u6055": 3877, "\u54d7": 3878, "\u7736": 3879, "\u75eb": 3880, "\u51f3": 3881, "\u9ca8": 3882, "\u64e2": 3883, "\u6b79": 3884, "\u6a35": 3885, "\u7620": 3886, "app": 3887, "\u8317": 3888, "\u7fdf": 3889, "\u9eef": 3890, "\u8712": 3891, "\u58f9": 3892, "\u6b87": 3893, "\u4f36": 3894, "\u8f99": 3895, "an": 3896, "\u7455": 3897, "\u753a": 3898, "\u5b5a": 3899, "\u75c9": 3900, "\u94f5": 3901, "\u6401": 3902, "\u6f3e": 3903, "\u621f": 3904, "\u9570": 3905, "\u9e2f": 3906, "\u7329": 3907, "190": 3908, "\u8537": 3909, "\u7f24": 3910, "\u53ed": 3911, "\u57a9": 3912, "113": 3913, "\u66f3": 3914, "usb": 3915, "\u595a": 3916, "\u6bd3": 3917, "ibm": 3918, "\u9893": 3919, "\u6c50": 3920, "\u9774": 3921, "china": 3922, "\u50a3": 3923, "\u5c2c": 3924, "\u6fee": 3925, "\u8d42": 3926, "\u5a9b": 3927, "\u61e6": 3928, "\u6266": 3929, "111": 3930, "\u97ec": 3931, "like": 3932, "\u6233": 3933, "java": 3934, "\u96ef": 3935, "114": 3936, "\u873f": 3937, "116": 3938, "1923": 3939, "\u7b3a": 3940, "\u88d8": 3941, "\u5c34": 3942, "\u4f97": 3943, "mba": 3944, "3g": 3945, "\u94a8": 3946, "1919": 3947, "\u82d3": 3948, "1922": 3949, "\u5bf0": 3950, "\u86ca": 3951, "\u6273": 3952, "\u6413": 3953, "\u6d9f": 3954, "\u776b": 3955, "\u6dec": 3956, "5mm": 3957, "123": 3958, "ve": 3959, "121": 3960, "\u8d48": 3961, "\u607a": 3962, "\u778e": 3963, "\u8759": 3964, "1921": 3965, "\u67b8": 3966, "\u8431": 3967, "\u989a": 3968, "\u61a9": 3969, "\u79fd": 3970, "\u79f8": 3971, "\u62f7": 3972, "\u9611": 3973, "\u8c82": 3974, "\u7cb1": 3975, "\u7172": 3976, "\u9698": 3977, "\u66a7": 3978, "\u60d5": 3979, "\u6cbd": 3980, "time": 3981, "\u83e0": 3982, "1911": 3983, "\u8d9f": 3984, "\u78cb": 3985, "\u5055": 3986, "\u6d95": 3987, "\u90b8": 3988, "so": 3989, "\u8e1e": 3990, "\u60eb": 3991, "122": 3992, "\u962a": 3993, "\u97a0": 3994, "\u997a": 3995, "\u6c5e": 3996, "\u988d": 3997, "\u6c30": 3998, "\u5c79": 3999, "\u86df": 4000, "\u8dfb": 4001, "\u54df": 4002, "have": 4003, "126": 4004, "\u81fc": 4005, "\u7184": 4006, "\u7edb": 4007, "\u5f29": 4008, "\u892a": 4009, "117": 4010, "\u6e0e": 4011, "\u4e9f": 4012, "\u532e": 4013, "\u6487": 4014, "internet": 4015, "\u9706": 4016, "\u6512": 4017, "\u8235": 4018, "\u625b": 4019, "\u5f64": 4020, "nba": 4021, "\u86e4": 4022, "\u5a62": 4023, "\u5043": 4024, "\u80eb": 4025, "\u59e5": 4026, "\u7751": 4027, "love": 4028, "iso": 4029, "pk": 4030, "\u8bd9": 4031, "what": 4032, "\u8bf2": 4033, "\u952d": 4034, "\u609a": 4035, "\u6252": 4036, "\u6d31": 4037, "\u52be": 4038, "\u60f0": 4039, "\u7be1": 4040, "\u74ef": 4041, "\u5f87": 4042, "\u94c0": 4043, "\u9a8b": 4044, "flash": 4045, "1918": 4046, "out": 4047, "\u7b77": 4048, "\u6e1a": 4049, "\u8e35": 4050, "\u4fe8": 4051, "ceo": 4052, "\u69bb": 4053, "\u7cdc": 4054, "\u637b": 4055, "\u91dc": 4056, "\u54e9": 4057, "\u8424": 4058, "270": 4059, "\u86f9": 4060, "\u96bd": 4061, "\u57ae": 4062, "\u9e20": 4063, "\u9e25": 4064, "\u6f15": 4065, "\u7459": 4066, "\u7934": 4067, "\u61a7": 4068, "\u6bb4": 4069, "\u6f7c": 4070, "\u60af": 4071, "\u783a": 4072, "\u62fd": 4073, "\u9497": 4074, "ct": 4075, "\u9163": 4076, "\u9542": 4077, "mp3": 4078, "\u81ba": 4079, "\u695e": 4080, "\u7afa": 4081, "\u8fc2": 4082, "\u5ae3": 4083, "\u5ff1": 4084, "cad": 4085, "\u54c4": 4086, "\u75a3": 4087, "\u9e66": 4088, "1700": 4089, "\u67ad": 4090, "\u61ac": 4091, "\u75b1": 4092, "will": 4093, "\u5a6a": 4094, "\u6cae": 4095, "1914": 4096, "\u6005": 4097, "119": 4098, "\u7b71": 4099, "\u6249": 4100, "\u77b0": 4101, "linux": 4102, "\u65cc": 4103, "\u8511": 4104, "\u94e0": 4105, "\u701b": 4106, "vip": 4107, "\u7425": 4108, "750": 4109, "127": 4110, "\u61f5": 4111, "\u8c34": 4112, "\u634d": 4113, "\u87fe": 4114, "\u6f29": 4115, "1913": 4116, "\u62e3": 4117, "\u6c74": 4118, "university": 4119, "\u5228": 4120, "\u53f1": 4121, "\u66dc": 4122, "\u599e": 4123, "\u6f8e": 4124, "\u9551": 4125, "\u7fce": 4126, "\u77aa": 4127, "sh": 4128, "\u5014": 4129, "\u828d": 4130, "\u749e": 4131, "\u74ee": 4132, "\u9a79": 4133, "\u82b7": 4134, "\u5bd0": 4135, "\u64c2": 4136, "\u4e15": 4137, "\u87e0": 4138, "\u8bc3": 4139, "\u60b8": 4140, "\u4e98": 4141, "\u6eb4": 4142, "\u5bb8": 4143, "\u5eff": 4144, "\u6043": 4145, "\u68e3": 4146, "1917": 4147, "\u837c": 4148, "\u7b60": 4149, "\u7f9a": 4150, "\u6151": 4151, "\u5509": 4152, "\u7ea3": 4153, "\u9ebc": 4154, "\u8e66": 4155, "\u9504": 4156, "145": 4157, "international": 4158, "124": 4159, "\u6dc6": 4160, "\u7519": 4161, "132": 4162, "\u869c": 4163, "\u693f": 4164, "\u79ba": 4165, "\u7eef": 4166, "\u5197": 4167, "168": 4168, "\u8469": 4169, "\u539d": 4170, "\u5ab2": 4171, "\u84bf": 4172, "\u75ea": 4173, "650": 4174, "\u83c1": 4175, "\u708a": 4176, "wifi": 4177, "\u4fd1": 4178, "new": 4179, "\u8ba5": 4180, "min": 4181, "\u6840": 4182, "\u797a": 4183, "129": 4184, "\u5421": 4185, "\u8fe9": 4186, "do": 4187, "john": 4188, "\u7b94": 4189, "\u76bf": 4190, "\u7f0e": 4191, "\u8426": 4192, "\u5243": 4193, "\u9713": 4194, "\u915d": 4195, "mg": 4196, "\u8bf0": 4197, "\u8309": 4198, "just": 4199, "get": 4200, "\u98d9": 4201, "\u6e4d": 4202, "\u8725": 4203, "\u7b95": 4204, "\u8638": 4205, "550": 4206, "4500": 4207, "\u67ec": 4208, "\u97ed": 4209, "\u6ea5": 4210, "but": 4211, "\u71a0": 4212, "\u9e49": 4213, "\u5490": 4214, "\u524c": 4215, "138": 4216, "\u6096": 4217, "\u77bf": 4218, "\u69df": 4219, "\u5a29": 4220, "\u95fe": 4221, "pvc": 4222, "\u9074": 4223, "\u54ab": 4224, "20000": 4225, "\u5b7a": 4226, "\u5f77": 4227, "\u832c": 4228, "211": 4229, "\u84df": 4230, "li": 4231, "if": 4232, "\u61a8": 4233, "\u8885": 4234, "\u4f6c": 4235, "\u70af": 4236, "erp": 4237, "1910": 4238, "\u5576": 4239, "\u6619": 4240, "\u86a9": 4241, "136": 4242, "\u75d4": 4243, "\u8568": 4244, "\u74e2": 4245, "\u5914": 4246, "\u6be1": 4247, "\u8d43": 4248, "\u9cd6": 4249, "\u6c85": 4250, "wang": 4251, "go": 4252, "\u9977": 4253, "165": 4254, "\u81e7": 4255, "\u6396": 4256, "\u891a": 4257, "\u7fb9": 4258, "ic": 4259, "\u52d0": 4260, "tv": 4261, "\u8c1a": 4262, "\u7566": 4263, "\u7728": 4264, "\u8d3b": 4265, "\u6538": 4266, "\u6d8e": 4267, "\u5f11": 4268, "\u548e": 4269, "\u94c2": 4270, "\u745b": 4271, "1905": 4272, "\u77d7": 4273, "\u8671": 4274, "more": 4275, "133": 4276, "\u79e4": 4277, "\u8c1f": 4278, "\u6f31": 4279, "\u4ff8": 4280, "\u5919": 4281, "1915": 4282, "br": 4283, "game": 4284, "\u96c9": 4285, "\u87a8": 4286, "\u6063": 4287, "\u659b": 4288, "175": 4289, "\u8c19": 4290, "\u968d": 4291, "131": 4292, "\u5944": 4293, "480": 4294, "yy": 4295, "1916": 4296, "\u58d5": 4297, "\u9afb": 4298, "155": 4299, "\u9131": 4300, "\u5636": 4301, "\u78d5": 4302, "\u6fe1": 4303, "\u8d58": 4304, "\u835e": 4305, "\u8bb9": 4306, "\u7315": 4307, "\u75de": 4308, "\u9b13": 4309, "\u94ee": 4310, "\u8171": 4311, "\u5e61": 4312, "\u69ad": 4313, "\u723b": 4314, "5m": 4315, "\u6d93": 4316, "\u6664": 4317, "\u5495": 4318, "\u60ed": 4319, "\u94bc": 4320, "\u5315": 4321, "ok": 4322, "\u64ae": 4323, "\u5ebe": 4324, "\u7b20": 4325, "\u7a98": 4326, "\u7656": 4327, "365": 4328, "\u579b": 4329, "\u7a92": 4330, "\u7572": 4331, "\u752c": 4332, "\u5f57": 4333, "\u7f28": 4334, "\u6e6e": 4335, "\u5bee": 4336, "et": 4337, "\u8845": 4338, "\u8c2a": 4339, "156": 4340, "\u7eeb": 4341, "9000": 4342, "152": 4343, "\u5156": 4344, "\u75bd": 4345, "\u78d0": 4346, "380": 4347, "\u83cf": 4348, "\u6cb1": 4349, "\u9a81": 4350, "\u5ad4": 4351, "\u76c2": 4352, "\u5a06": 4353, "\u948a": 4354, "\u87d2": 4355, "\u5fcf": 4356, "\u8c24": 4357, "148": 4358, "137": 4359, "server": 4360, "2200": 4361, "\u665f": 4362, "ng": 4363, "15000": 4364, "google": 4365, "\u75c8": 4366, "\u8006": 4367, "\u8c27": 4368, "\u7c2a": 4369, "134": 4370, "ml": 4371, "\u759f": 4372, "\u6248": 4373, "\u810d": 4374, "\u741b": 4375, "\u548b": 4376, "\u80c4": 4377, "142": 4378, "144": 4379, "\u8446": 4380, "\u8f76": 4381, "\u6862": 4382, "973": 4383, "\u6518": 4384, "was": 4385, "\u9095": 4386, "\u62e7": 4387, "\u832f": 4388, "205": 4389, "\u6452": 4390, "1908": 4391, "intel": 4392, "\u5080": 4393, "\u795a": 4394, "\u561f": 4395, "\u5e3c": 4396, "1906": 4397, "wto": 4398, "\u7b75": 4399, "when": 4400, "\u9992": 4401, "\u759a": 4402, "\u7487": 4403, "\u7827": 4404, "merge": 4405, "\u69c3": 4406, "microsoft": 4407, "\u72b7": 4408, "exe": 4409, "\u8153": 4410, "\u715c": 4411, "\u5f0b": 4412, "\u75b8": 4413, "\u6fd1": 4414, "310": 4415, "201": 4416, "\u9e9d": 4417, "\u55df": 4418, "\u5ffb": 4419, "\u6123": 4420, "facebook": 4421, "\u6593": 4422, "\u541d": 4423, "\u54a7": 4424, "\u77fe": 4425, "\u612b": 4426, "151": 4427, "158": 4428, "\u6f2a": 4429, "\u73c2": 4430, "rna": 4431, "\u901e": 4432, "146": 4433, "206": 4434, "\u7ce0": 4435, "\u7490": 4436, "\u85d3": 4437, "\u6615": 4438, "\u59a9": 4439, "\u5c4c": 4440, "\u75b5": 4441, "excel": 4442, "\u5618": 4443, "he": 4444, "plc": 4445, "\u8882": 4446, "2400": 4447, "139": 4448, "\u7a03": 4449, "\u5241": 4450, "\u4f8f": 4451, "\u6390": 4452, "\u733e": 4453, "\u530d": 4454, "2800": 4455, "\u5773": 4456, "\u9edc": 4457, "\u90ba": 4458, "\u95eb": 4459, "\u7325": 4460, "\u6e43": 4461, "\u659f": 4462, "\u7663": 4463, "1904": 4464, "185": 4465, "\u5310": 4466, "\u7cb3": 4467, "sql": 4468, "330": 4469, "141": 4470, "cp": 4471, "1909": 4472, "\u53df": 4473, "\u4ffe": 4474, "\u5121": 4475, "\u8392": 4476, "12000": 4477, "\u9aa5": 4478, "\u8de4": 4479, "\u8019": 4480, "\u77dc": 4481, "\u7ff1": 4482, "zhang": 4483, "ms": 4484, "\u8d61": 4485, "1907": 4486, "\u6d63": 4487, "\u683e": 4488, "\u62c8": 4489, "science": 4490, "420": 4491, "\u879f": 4492, "aaa": 4493, "\u6867": 4494, "\u574d": 4495, "\u7762": 4496, "\u8db4": 4497, "id": 4498, "\u4f0e": 4499, "2100": 4500, "\u5a7a": 4501, "\u9739": 4502, "\u75ca": 4503, "\u818a": 4504, "\u772f": 4505, "\u8c4c": 4506, "202": 4507, "\u9a6e": 4508, "\u9a88": 4509, "850": 4510, "iii": 4511, "\u5d82": 4512, "\u6dde": 4513, "143": 4514, "\u816e": 4515, "\u9ac5": 4516, "\u7080": 4517, "\u5544": 4518, "\u4eb3": 4519, "\u9ebe": 4520, "147": 4521, "\u7b50": 4522, "\u53e8": 4523, "\u5fa8": 4524, "\u8df7": 4525, "ac": 4526, "\u6942": 4527, "\u90f4": 4528, "\u7ef6": 4529, "hp": 4530, "\u7f94": 4531, "xp": 4532, "ieee": 4533, "\u54a4": 4534, "now": 4535, "there": 4536, "\u9773": 4537, "they": 4538, "\u5c4e": 4539, "\u96f3": 4540, "\u7618": 4541, "\u8e6c": 4542, "2300": 4543, "\u60ee": 4544, "acid": 4545, "\u6daa": 4546, "\u9616": 4547, "\u717d": 4548, "\u8e4a": 4549, "225": 4550, "\u6809": 4551, "153": 4552, "\u4fdf": 4553, "\u6db8": 4554, "\u8fab": 4555, "\u9522": 4556, "\u4f5f": 4557, "176": 4558, "\u768e": 4559, "cctv": 4560, "\u556e": 4561, "\u94b0": 4562, "\u8782": 4563, "dc": 4564, "\u556a": 4565, "\u7ef7": 4566, "204": 4567, "\u95f0": 4568, "\u757f": 4569, "2d": 4570, "\u8983": 4571, "2600": 4572, "\u60d8": 4573, "\u8d30": 4574, "154": 4575, "\u7889": 4576, "\u535e": 4577, "\u9150": 4578, "\u67b7": 4579, "\u847a": 4580, "\u82aa": 4581, "207": 4582, "\u8559": 4583, "192": 4584, "\u549a": 4585, "\u7c41": 4586, "pro": 4587, "\u94b4": 4588, "162": 4589, "\u51bd": 4590, "\u73ae": 4591, "\u9ab7": 4592, "\u5543": 4593, "\u7116": 4594, "\u731d": 4595, "\u6988": 4596, "\u6ec1": 4597, "\u62ee": 4598, "\u8dd7": 4599, "\u8bb7": 4600, "\u8757": 4601, "208": 4602, "\u8821": 4603, "world": 4604, "\u70e8": 4605, "been": 4606, "hd": 4607, "gmp": 4608, "256": 4609, "\u812f": 4610, "\u6b59": 4611, "\u6ce0": 4612, "\u520d": 4613, "\u63b3": 4614, "pe": 4615, "his": 4616, "\u50f3": 4617, "340": 4618, "1902": 4619, "\u87af": 4620, "\u80f3": 4621, "\u9ae6": 4622, "\u7cbd": 4623, "\u623e": 4624, "\u795c": 4625, "178": 4626, "186": 4627, "\u5cb7": 4628, "\u61cb": 4629, "\u99a5": 4630, "\u6635": 4631, "\u8e0a": 4632, "\u6e44": 4633, "\u90e2": 4634, "\u65a1": 4635, "\u8fe2": 4636, "ce": 4637, "photoshop": 4638, "\u55ea": 4639, "about": 4640, "\u88e8": 4641, "1903": 4642, "\u7fa7": 4643, "\u8188": 4644, "\u7fca": 4645, "lcd": 4646, "\u9cab": 4647, "163": 4648, "\u8783": 4649, "\u6c93": 4650, "\u759d": 4651, "\u7b08": 4652, "ktv": 4653, "\u6994": 4654, "157": 4655, "\u8bd8": 4656, "autocad": 4657, "195": 4658, "\u9889": 4659, "\u86c0": 4660, "\u9e22": 4661, "\u712f": 4662, "\u56e7": 4663, "make": 4664, "\u6886": 4665, "npc": 4666, "\u6f5e": 4667, "\u621b": 4668, "see": 4669, "system": 4670, "149": 4671, "\u4f57": 4672, "\u826e": 4673, "chinese": 4674, "let": 4675, "\u973e": 4676, "\u9b1f": 4677, "215": 4678, "net": 4679, "\u7396": 4680, "1898": 4681, "\u816d": 4682, "\u5594": 4683, "172": 4684, "\u7f54": 4685, "\u4f65": 4686, "\u7c91": 4687, "visual": 4688, "\u8237": 4689, "\u6cef": 4690, "m2": 4691, "198": 4692, "has": 4693, "203": 4694, "sd": 4695, "\u6cd3": 4696, "\u709c": 4697, "\u8c17": 4698, "\u70ec": 4699, "\u8dc6": 4700, "rpg": 4701, "\u50a9": 4702, "\u98d3": 4703, "\u6d54": 4704, "\u94a4": 4705, "\u60da": 4706, "\u80ed": 4707, "\u8e1d": 4708, "\u956f": 4709, "ep": 4710, "221": 4711, "\u81c6": 4712, "196": 4713, "\u871a": 4714, "\u63ea": 4715, "\u89de": 4716, "\u7688": 4717, "dj": 4718, "183": 4719, "api": 4720, "\u8ff8": 4721, "\u531d": 4722, "\u7b4f": 4723, "167": 4724, "\u91b4": 4725, "\u9ecd": 4726, "\u6d2e": 4727, "\u6ee6": 4728, "\u4fac": 4729, "\u753e": 4730, "290": 4731, "way": 4732, "3200": 4733, "188": 4734, "diy": 4735, "2cm": 4736, "com": 4737, "\u6fa7": 4738, "\u9608": 4739, "\u88b1": 4740, "\u8fe4": 4741, "\u886e": 4742, "166": 4743, "\u6fc2": 4744, "\u5a11": 4745, "\u7825": 4746, "\u7837": 4747, "\u94e8": 4748, "\u7f1c": 4749, "\u7bb4": 4750, "30000": 4751, "\u9035": 4752, "\u7316": 4753, "159": 4754, "\u86f0": 4755, "\u7b8d": 4756, "\u4fa5": 4757, "2mm": 4758, "\u6402": 4759, "\u7ea8": 4760, "\u88f1": 4761, "\u678b": 4762, "\u5ae6": 4763, "\u655d": 4764, "\u631d": 4765, "\u8d32": 4766, "\u6f66": 4767, "235": 4768, "\u64a9": 4769, "\u60fa": 4770, "\u94f0": 4771, "f1": 4772, "\u5fd2": 4773, "\u5486": 4774, "\u54c6": 4775, "\u8385": 4776, "164": 4777, "\u7095": 4778, "\u62a8": 4779, "\u6dbf": 4780, "\u9f88": 4781, "\u7337": 4782, "got": 4783, "b1": 4784, "182": 4785, "2m": 4786, "212": 4787, "\u9052": 4788, "\u7f25": 4789, "vs": 4790, "\u6342": 4791, "\u4fd0": 4792, "la": 4793, "\u7619": 4794, "\u6410": 4795, "\u724d": 4796, "isbn": 4797, "\u998d": 4798, "our": 4799, "\u75ff": 4800, "\u88a4": 4801, "\u5ce5": 4802, "184": 4803, "\u680e": 4804, "\u7f79": 4805, "\u71ce": 4806, "\u55b5": 4807, "209": 4808, "1901": 4809, "\u749c": 4810, "\u98d2": 4811, "\u853c": 4812, "\u73de": 4813, "\u6fb9": 4814, "\u5958": 4815, "\u5c96": 4816, "\u82a1": 4817, "\u7c38": 4818, "\u6775": 4819, "\u7525": 4820, "\u9a8a": 4821, "216": 4822, "\u60b4": 4823, "173": 4824, "\u60c6": 4825, "5mg": 4826, "\u6b83": 4827, "1895": 4828, "\u5443": 4829, "161": 4830, "5g": 4831, "\u7957": 4832, "3600": 4833, "\u9acb": 4834, "169": 4835, "liu": 4836, "who": 4837, "\u5e54": 4838, "down": 4839, "\u699b": 4840, "\u728a": 4841, "\u9701": 4842, "\u82ae": 4843, "520": 4844, "\u7252": 4845, "\u4f70": 4846, "her": 4847, "\u72c8": 4848, "\u85a8": 4849, "co": 4850, "\u5429": 4851, "\u9cdd": 4852, "\u5d58": 4853, "\u6fe0": 4854, "\u5464": 4855, "\u7eab": 4856, "3mm": 4857, "\u6a84": 4858, "214": 4859, "\u6d5c": 4860, "370": 4861, "189": 4862, "\u7f19": 4863, "\u7f22": 4864, "\u7166": 4865, "\u84e6": 4866, "\u63d6": 4867, "\u62f4": 4868, "\u7f08": 4869, "218": 4870, "\u8925": 4871, "\u94ff": 4872, "312": 4873, "\u71ee": 4874, "life": 4875, "\u9535": 4876, "174": 4877, "\u8365": 4878, "187": 4879, "\u5fff": 4880, "4s": 4881, "\u50d6": 4882, "\u5a76": 4883, "171": 4884, "chen": 4885, "\u82be": 4886, "\u9550": 4887, "\u75e3": 4888, "research": 4889, "\u7708": 4890, "460": 4891, "\u7947": 4892, "\u9088": 4893, "\u7ff3": 4894, "\u78a3": 4895, "\u9068": 4896, "\u9cd7": 4897, "\u8bc2": 4898, "never": 4899, "\u5cab": 4900, "\u7118": 4901, "3cm": 4902, "co2": 4903, "\u8331": 4904, "tcp": 4905, "only": 4906, "255": 4907, "gsm": 4908, "say": 4909, "\u6d35": 4910, "\u6641": 4911, "right": 4912, "\u5662": 4913, "she": 4914, "over": 4915, "\u5048": 4916, "\u65d6": 4917, "david": 4918, "181": 4919, "232": 4920, "\u8693": 4921, "\u67d8": 4922, "\u73d0": 4923, "\u907d": 4924, "\u5c8c": 4925, "\u6845": 4926, "213": 4927, "\u5514": 4928, "222": 4929, "\u911e": 4930, "\u96f9": 4931, "michael": 4932, "\u9a78": 4933, "\u82fb": 4934, "\u607b": 4935, "\u9b03": 4936, "\u7391": 4937, "\u78ec": 4938, "\u5d02": 4939, "304": 4940, "\u7949": 4941, "\u8364": 4942, "\u6dfc": 4943, "560": 4944, "264": 4945, "\u80b1": 4946, "\u5457": 4947, "pp": 4948, "b2": 4949, "\u9aa1": 4950, "\u56f1": 4951, "10cm": 4952, "\u4f5e": 4953, "back": 4954, "1890": 4955, "226": 4956, "\u8012": 4957, "\u4f2b": 4958, "\u56b7": 4959, "\u7cbc": 4960, "aa": 4961, "\u6b46": 4962, "\u4f43": 4963, "\u65ce": 4964, "\u60cb": 4965, "\u6b81": 4966, "\u6773": 4967, "their": 4968, "\u9621": 4969, "red": 4970, "\u7548": 4971, "\u853a": 4972, "os": 4973, "177": 4974, "map": 4975, "\u5dfd": 4976, "cbd": 4977, "\u6631": 4978, "\u5570": 4979, "\u5420": 4980, "179": 4981, "199": 4982, "\u55d4": 4983, "\u6dae": 4984, "238": 4985, "\u5942": 4986, "1896": 4987, "\u64b7": 4988, "301": 4989, "\u8892": 4990, "720": 4991, "\u7230": 4992, "\u6376": 4993, "\u8d6d": 4994, "\u8713": 4995, "\u59d7": 4996, "\u853b": 4997, "\u57a0": 4998, "193": 4999, "gis": 5000, "\u567b": 5001, "ab": 5002, "\u5cd2": 5003, "\u7699": 5004, "want": 5005, "245": 5006, "\u6194": 5007, "\u5e1a": 5008, "office": 5009, "xx": 5010, "\u6777": 5011, "\u87c6": 5012, "iso14001": 5013, "\u89d0": 5014, "\u9492": 5015, "\u5c99": 5016, "2700": 5017, "1899": 5018, "\u6800": 5019, "\u5e44": 5020, "\u5567": 5021, "\u765c": 5022, "\u64c0": 5023, "\u8f72": 5024, "\u94c6": 5025, "them": 5026, "\u8bb4": 5027, "\u6a3d": 5028, "\u970f": 5029, "mtv": 5030, "\u80ae": 5031, "\u67b3": 5032, "\u9a9e": 5033, "\u8be7": 5034, "\u7622": 5035, "\u866c": 5036, "\u62d7": 5037, "play": 5038, "219": 5039, "\u8572": 5040, "316": 5041, "\u8301": 5042, "\u5506": 5043, "technology": 5044, "word": 5045, "\u6cad": 5046, "\u6bc2": 5047, "\u86ce": 5048, "\u828a": 5049, "\u92ae": 5050, "\u77a5": 5051, "\u5471": 5052, "223": 5053, "\u7fbf": 5054, "\u5412": 5055, "\u50a5": 5056, "\u9aef": 5057, "\u6fef": 5058, "\u873b": 5059, "\u76b4": 5060, "802": 5061, "430": 5062, "\u90b3": 5063, "\u71e7": 5064, "1860": 5065, "\u736d": 5066, "\u57ad": 5067, "\u795f": 5068, "217": 5069, "\u8662": 5070, "how": 5071, "\u6787": 5072, "abs": 5073, "\u9e6b": 5074, "194": 5075, "\u989e": 5076, "1894": 5077, "333": 5078, "\u7691": 5079, "\u8132": 5080, "197": 5081, "\u8214": 5082, "\u9b47": 5083, "\u972d": 5084, "org": 5085, "\u5768": 5086, "\u90e7": 5087, "baby": 5088, "\u693d": 5089, "\u822b": 5090, "228": 5091, "oh": 5092, "305": 5093, "\u8360": 5094, "\u740a": 5095, "\u6e9f": 5096, "1897": 5097, "\u7168": 5098, "265": 5099, "\u8c2f": 5100, "\u7cb2": 5101, "\u7f42": 5102, "gonna": 5103, "\u5c49": 5104, "\u4f6f": 5105, "\u90e6": 5106, "\u4eb5": 5107, "\u8bfd": 5108, "\u82a9": 5109, "\u5d47": 5110, "\u86a4": 5111, "\u54d2": 5112, "315": 5113, "\u556c": 5114, "ain": 5115, "\u568e": 5116, "\u73a5": 5117, "twitter": 5118, "191": 5119, "\u96bc": 5120, "\u5522": 5121, "\u94db": 5122, "cause": 5123, "\u58c5": 5124, "\u85dc": 5125, "won": 5126, "\u5431": 5127, "rom": 5128, "\u6963": 5129, "\u749f": 5130, "\u9506": 5131, "\u618b": 5132, "\u7f61": 5133, "al": 5134, "\u5499": 5135, "1850": 5136, "\u8148": 5137, "oslash": 5138, "job": 5139, "233": 5140, "\u5eea": 5141, "\u5811": 5142, "into": 5143, "\u8be9": 5144, "b2c": 5145, "\u6ea7": 5146, "\u9e51": 5147, "\u8bab": 5148, "\u54cc": 5149, "\u94e2": 5150, "\u8734": 5151, "1ml": 5152, "\u7a39": 5153, "\u565c": 5154, "\u9549": 5155, "224": 5156, "\u6115": 5157, "\u6841": 5158, "\u6654": 5159, "\u7430": 5160, "\u9672": 5161, "\u7599": 5162, "667": 5163, "\u5d2e": 5164, "need": 5165, "540": 5166, "8mm": 5167, "html": 5168, "\u989b": 5169, "through": 5170, "asp": 5171, "\u6861": 5172, "\u949c": 5173, "580": 5174, "take": 5175, "\u8c11": 5176, "\u4ede": 5177, "\u54a6": 5178, "\u73ea": 5179, "\u63cd": 5180, "\u9c7f": 5181, "\u9609": 5182, "3800": 5183, "\u7629": 5184, "410": 5185, "\u69cc": 5186, "\u6ed3": 5187, "\u8334": 5188, "tft": 5189, "\u6cee": 5190, "\u6da3": 5191, "atm": 5192, "pci": 5193, "\u67de": 5194, "\u6e25": 5195, "\u98e8": 5196, "\u5b6a": 5197, "\u6c94": 5198, "\u8c32": 5199, "\u6849": 5200, "vcd": 5201, "\u6175": 5202, "318": 5203, "oem": 5204, "other": 5205, "\u4fda": 5206, "paul": 5207, "\u8dd6": 5208, "\u7ead": 5209, "\u6059": 5210, "which": 5211, "fi": 5212, "\u4f58": 5213, "236": 5214, "\u8343": 5215, "\u5484": 5216, "\u9785": 5217, "\u53c1": 5218, "james": 5219, "\u607d": 5220, "m3": 5221, "253": 5222, "\u7094": 5223, "\u8418": 5224, "\u94ba": 5225, "6500": 5226, "1880": 5227, "ccd": 5228, "\u696b": 5229, "\u586c": 5230, "\u94a1": 5231, "\u742e": 5232, "\u82c4": 5233, "950": 5234, "325": 5235, "275": 5236, "1g": 5237, "day": 5238, "o2o": 5239, "960": 5240, "music": 5241, "\u9ab0": 5242, "\u504e": 5243, "\u7c95": 5244, "amd": 5245, "\u5494": 5246, "\u9e44": 5247, "\u74d2": 5248, "\u9606": 5249, "\u6345": 5250, "\u5b34": 5251, "adobe": 5252, "\u7ba8": 5253, "name": 5254, "390": 5255, "680": 5256, "640": 5257, "\u6c26": 5258, "\u501c": 5259, "b2b": 5260, "\u89ca": 5261, "xml": 5262, "\u5a55": 5263, "229": 5264, "jar": 5265, "\u9511": 5266, "\u64ac": 5267, "chem": 5268, "\u63b0": 5269, "\u55f7": 5270, "5500": 5271, "1cm": 5272, "\u996f": 5273, "\u84d3": 5274, "234": 5275, "good": 5276, "\u9f2c": 5277, "spa": 5278, "\u4f64": 5279, "5a": 5280, "ss": 5281, "\u86af": 5282, "\u631e": 5283, "\u81fe": 5284, "where": 5285, "atp": 5286, "227": 5287, "\u5d99": 5288, "\u5e42": 5289, "\u996c": 5290, "\u95f1": 5291, "live": 5292, "high": 5293, "\u7145": 5294, "\u5627": 5295, "1mm": 5296, "\u8e6d": 5297, "sun": 5298, "abc": 5299, "\u77ad": 5300, "\u987c": 5301, "\u7b90": 5302, "here": 5303, "\u5f89": 5304, "231": 5305, "\u9a9c": 5306, "302": 5307, "\u55e8": 5308, "\u909b": 5309, "\u5e91": 5310, "\u67e9": 5311, "\u9955": 5312, "\u4fce": 5313, "4mm": 5314, "15g": 5315, "\u560c": 5316, "50000": 5317, "\u988f": 5318, "cssci": 5319, "\u6901": 5320, "\u5d27": 5321, "\u9509": 5322, "\u7c7c": 5323, "1870": 5324, "\u72de": 5325, "\u5f01": 5326, "6mm": 5327, "\u7faf": 5328, "\u8e39": 5329, "\u7cc5": 5330, "248": 5331, "1840": 5332, "\u783c": 5333, "263": 5334, "\u5ad6": 5335, "tmp": 5336, "252": 5337, "mac": 5338, "285": 5339, "\u8c49": 5340, "\u5549": 5341, "\u69b7": 5342, "\u5608": 5343, "en": 5344, "\u4fea": 5345, "\u75c2": 5346, "308": 5347, "inf": 5348, "630": 5349, "\u510b": 5350, "4a": 5351, "\u828e": 5352, "ai": 5353, "man": 5354, "\u7e47": 5355, "1889": 5356, "bt": 5357, "239": 5358, "meta": 5359, "\u8e47": 5360, "242": 5361, "530": 5362, "\u8bcb": 5363, "bbc": 5364, "\u7178": 5365, "\u5ccb": 5366, "\u6dd9": 5367, "324": 5368, "management": 5369, "1885": 5370, "\u6cf1": 5371, "\u5f9c": 5372, "crm": 5373, "4cm": 5374, "free": 5375, "\u6c69": 5376, "\u7ea5": 5377, "246": 5378, "\u877c": 5379, "\u56ff": 5380, "uv": 5381, "\u66b9": 5382, "\u8c06": 5383, "\u8e42": 5384, "\u97a3": 5385, "3c": 5386, "mr": 5387, "\u87b3": 5388, "cs": 5389, "\u9997": 5390, "\u5e7a": 5391, "\u9791": 5392, "\u8d3d": 5393, "268": 5394, "istp": 5395, "243": 5396, "\u6f2f": 5397, "237": 5398, "\u7266": 5399, "\u6dd6": 5400, "engineering": 5401, "dr": 5402, "\u56e4": 5403, "than": 5404, "gprs": 5405, "sp": 5406, "440": 5407, "\u6657": 5408, "1888": 5409, "258": 5410, "\u5fe1": 5411, "\u61ca": 5412, "\u544b": 5413, "\u57c2": 5414, "pcb": 5415, "307": 5416, "first": 5417, "321": 5418, "robert": 5419, "\u9c88": 5420, "sup2": 5421, "\u9615": 5422, "3m": 5423, "\u5e4c": 5424, "cg": 5425, "303": 5426, "\u9cc5": 5427, "\u52f0": 5428, "find": 5429, "8cm": 5430, "\u8438": 5431, "\u527d": 5432, "\u869d": 5433, "wi": 5434, "\u7ed4": 5435, "pdf": 5436, "1250": 5437, "262": 5438, "php": 5439, "\u8f87": 5440, "10mg": 5441, "use": 5442, "ie": 5443, "\u9e8b": 5444, "1884": 5445, "\u965f": 5446, "\u5ba5": 5447, "oracle": 5448, "\u953a": 5449, "\u55bd": 5450, "620": 5451, "1892": 5452, "1893": 5453, "\u6dc5": 5454, "\u71b5": 5455, "\u8368": 5456, "247": 5457, "\u5fe4": 5458, "american": 5459, "266": 5460, "seo": 5461, "\u8f6d": 5462, "\u55e6": 5463, "\u836a": 5464, "also": 5465, "\u9aa0": 5466, "\u9e58": 5467, "p2p": 5468, "4g": 5469, "\u807f": 5470, "\u7efe": 5471, "\u8bf6": 5472, "985": 5473, "\u6006": 5474, "244": 5475, "\u558b": 5476, "\u6078": 5477, "\u6e5f": 5478, "\u7768": 5479, "\u7fe6": 5480, "fe": 5481, "\u8708": 5482, "1875": 5483, "\u8902": 5484, "\u5a3c": 5485, "1886": 5486, "\u7fb8": 5487, "\u89ce": 5488, "470": 5489, "\u7601": 5490, "306": 5491, "\u86a3": 5492, "\u547b": 5493, "241": 5494, "1882": 5495, "\u6636": 5496, "\u8c36": 5497, "\u732c": 5498, "\u837b": 5499, "school": 5500, "286": 5501, "\u9157": 5502, "unit": 5503, "\u8084": 5504, "\u8e8f": 5505, "\u8191": 5506, "288": 5507, "2g": 5508, "\u55e1": 5509, "273": 5510, "iv": 5511, "cam": 5512, "510": 5513, "\u5ea0": 5514, "\u5d3d": 5515, "254": 5516, "\u642a": 5517, "pcr": 5518, "\u80ef": 5519, "309": 5520, "\u94c9": 5521, "\u5ce4": 5522, "\u90ef": 5523, "\u85d0": 5524, "\u8202": 5525, "come": 5526, "\u84fc": 5527, "some": 5528, "\u858f": 5529, "\u7abf": 5530, "\u7fa3": 5531, "\u6c3d": 5532, "\u5f95": 5533, "\u51bc": 5534, "rs": 5535, "\u9602": 5536, "\u6b24": 5537, "\u6b92": 5538, "\u7a88": 5539, "\u8118": 5540, "780": 5541, "\u7bdd": 5542, "yang": 5543, "1861": 5544, "3300": 5545, "iso9000": 5546, "\u9eb8": 5547, "\u782d": 5548, "max": 5549, "\u7830": 5550, "\u9ab6": 5551, "\u8c7a": 5552, "lg": 5553, "\u7aa0": 5554, "\u7352": 5555, "think": 5556, "\u8174": 5557, "\u82d5": 5558, "any": 5559, "its": 5560, "\u7f07": 5561, "\u9a85": 5562, "\u52ad": 5563, "college": 5564, "\u5345": 5565, "ups": 5566, "\u63c6": 5567, "\u5785": 5568, "na": 5569, "6cm": 5570, "\u740f": 5571, "\u9557": 5572, "\u82dc": 5573, "\u80db": 5574, "1881": 5575, "black": 5576, "\u73cf": 5577, "\u542e": 5578, "\u62a0": 5579, "\u6414": 5580, "276": 5581, "rock": 5582, "251": 5583, "\u69ce": 5584, "4200": 5585, "323": 5586, "\u63a3": 5587, "pet": 5588, "1887": 5589, "ap": 5590, "\u7428": 5591, "\u992e": 5592, "375": 5593, "\u821b": 5594, "give": 5595, "si": 5596, "\u75e4": 5597, "us": 5598, "311": 5599, "278": 5600, "\u57ed": 5601, "english": 5602, "peter": 5603, "1891": 5604, "820": 5605, "\u80ea": 5606, "\u55b9": 5607, "\u59b2": 5608, "\u5a40": 5609, "\u5e19": 5610, "10g": 5611, "oa": 5612, "7500": 5613, "\u7ba9": 5614, "\u704f": 5615, "\u970e": 5616, "logo": 5617, "\u8884": 5618, "dsp": 5619, "bl": 5620, "\u956d": 5621, "\u84ff": 5622, "power": 5623, "long": 5624, "\u5889": 5625, "too": 5626, "\u5d4a": 5627, "1862": 5628, "girl": 5629, "\u5807": 5630, "king": 5631, "\u87cb": 5632, "610": 5633, "\u53fd": 5634, "249": 5635, "\u948e": 5636, "30cm": 5637, "fm": 5638, "\u9332": 5639, "group": 5640, "1883": 5641, "\u90d3": 5642, "\u7634": 5643, "vol": 5644, "\u4e36": 5645, "\u5466": 5646, "\u90ac": 5647, "\u982b": 5648, "272": 5649, "\u9981": 5650, "hiv": 5651, "\u9122": 5652, "257": 5653, "1876": 5654, "ordm": 5655, "\u86ed": 5656, "322": 5657, "\u610d": 5658, "\u9532": 5659, "\u69ff": 5660, "\u73c8": 5661, "best": 5662, "4800": 5663, "mri": 5664, "1080": 5665, "fda": 5666, "10mm": 5667, "261": 5668, "nt": 5669, "660": 5670, "super": 5671, "1m": 5672, "center": 5673, "ui": 5674, "335": 5675, "\u8703": 5676, "298": 5677, "\u62ce": 5678, "\u938f": 5679, "\u88df": 5680, "\u6c8f": 5681, "np": 5682, "\u87ad": 5683, "7mm": 5684, "\u89d1": 5685, "\u5892": 5686, "\u637a": 5687, "\u8f78": 5688, "micro": 5689, "\u69ab": 5690, "based": 5691, "319": 5692, "\u6014": 5693, "ram": 5694, "618": 5695, "\u6600": 5696, "even": 5697, "\u6cf7": 5698, "1864": 5699, "ca": 5700, "\u51eb": 5701, "\u5520": 5702, "\u72f0": 5703, "\u9c9b": 5704, "\u6c10": 5705, "\u545b": 5706, "\u7ec0": 5707, "\u789b": 5708, "\u830f": 5709, "\u76c5": 5710, "\u87c0": 5711, "\u6d19": 5712, "off": 5713, "\u8a07": 5714, "\u8839": 5715, "auml": 5716, "dos": 5717, "20cm": 5718, "267": 5719, "\u68c2": 5720, "18000": 5721, "\u86b4": 5722, "\u7bfe": 5723, "two": 5724, "\u975b": 5725, "\u6684": 5726, "show": 5727, "1868": 5728, "\u6cde": 5729, "cdma": 5730, "mark": 5731, "vc": 5732, "\u6d04": 5733, "\u8d53": 5734, "\u9ebd": 5735, "25000": 5736, "\u7bd3": 5737, "\u5b51": 5738, "860": 5739, "\u70e9": 5740, "980": 5741, "design": 5742, "\u98a2": 5743, "\u94a3": 5744, "var": 5745, "\u9ac2": 5746, "\u8e74": 5747, "wanna": 5748, "\u7b6e": 5749, "\u874c": 5750, "\u91ae": 5751, "home": 5752, "\u83d6": 5753, "fun": 5754, "cmos": 5755, "\u7357": 5756, "friends": 5757, "business": 5758, "\u5c98": 5759, "570": 5760, "\u9f10": 5761, "1865": 5762, "\u59e3": 5763, "national": 5764, "1874": 5765, "\u87d1": 5766, "\u8888": 5767, "\u8476": 5768, "\u63ac": 5769, "most": 5770, "vga": 5771, "emba": 5772, "\u8e87": 5773, "30g": 5774, "\u9e4c": 5775, "city": 5776, "\u8e0c": 5777, "282": 5778, "\u94b9": 5779, "\u86aa": 5780, "\u98a7": 5781, "001": 5782, "13000": 5783, "\u9e73": 5784, "274": 5785, "km": 5786, "345": 5787, "1050": 5788, "stop": 5789, "328": 5790, "then": 5791, "\u9cb2": 5792, "\u9a77": 5793, "\u6f74": 5794, "295": 5795, "386": 5796, "\u7131": 5797, "\u7a14": 5798, "\u608c": 5799, "mpeg": 5800, "st": 5801, "suv": 5802, "vista": 5803, "a1": 5804, "vi": 5805, "283": 5806, "help": 5807, "basic": 5808, "\u550f": 5809, "11000": 5810, "\u82d2": 5811, "\u8e59": 5812, "house": 5813, "heart": 5814, "ouml": 5815, "281": 5816, "\u6c29": 5817, "bug": 5818, "mobile": 5819, "\u5b93": 5820, "service": 5821, "dll": 5822, "\u7da6": 5823, "\u82ce": 5824, "application": 5825, "\u7583": 5826, "methyl": 5827, "\u652b": 5828, "rfid": 5829, "100g": 5830, "287": 5831, "\u63be": 5832, "1871": 5833, "\u5fad": 5834, "490": 5835, "\u8200": 5836, "\u9036": 5837, "\u55e4": 5838, "760": 5839, "0m": 5840, "ge": 5841, "1872": 5842, "people": 5843, "hr": 5844, "\u8737": 5845, "\u8314": 5846, "512": 5847, "\u75b3": 5848, "\u8ff3": 5849, "\u7f44": 5850, "\u74e0": 5851, "100mg": 5852, "\u8baa": 5853, "psp": 5854, "av": 5855, "\u5088": 5856, "ppp": 5857, "\u6772": 5858, "\u705e": 5859, "\u6c32": 5860, "\u9b32": 5861, "\u7360": 5862, "\u67d2": 5863, "\u9aa7": 5864, "1848": 5865, "away": 5866, "william": 5867, "326": 5868, "\u6400": 5869, "\u73e9": 5870, "\u7ee6": 5871, "1879": 5872, "\u568f": 5873, "710": 5874, "\u955b": 5875, "\u55b1": 5876, "\u500f": 5877, "\u998b": 5878, "\u832d": 5879, "\u64d8": 5880, "\u65ab": 5881, "284": 5882, "1mg": 5883, "\u6002": 5884, "hdmi": 5885, "\u5527": 5886, "\u728d": 5887, "\u8c29": 5888, "\u8d4a": 5889, "317": 5890, "271": 5891, "wu": 5892, "\u9b3b": 5893, "\u799b": 5894, "15cm": 5895, "259": 5896, "840": 5897, "feel": 5898, "485": 5899, "\u573b": 5900, "10m": 5901, "\u8e76": 5902, "5kg": 5903, "1877": 5904, "1873": 5905, "\u7f04": 5906, "\u763f": 5907, "\u9ee0": 5908, "\u7511": 5909, "\u77f8": 5910, "\u5600": 5911, "il": 5912, "\u8e7c": 5913, "jack": 5914, "lee": 5915, "269": 5916, "\u53fc": 5917, "di": 5918, "313": 5919, "\u65fb": 5920, "auc": 5921, "502": 5922, "1350": 5923, "\u9e5c": 5924, "289": 5925, "fc": 5926, "\u7a17": 5927, "336": 5928, "999": 5929, "association": 5930, "many": 5931, "293": 5932, "\u96d2": 5933, "george": 5934, "td": 5935, "\u8d49": 5936, "style": 5937, "\u9994": 5938, "\u98a6": 5939, "ul": 5940, "ld50": 5941, "1867": 5942, "\u9894": 5943, "\u6387": 5944, "1863": 5945, "each": 5946, "\u8d45": 5947, "\u684e": 5948, "inc": 5949, "\u75e7": 5950, "dv": 5951, "\u8c04": 5952, "\u5b5b": 5953, "\u7b06": 5954, "\u9cb6": 5955, "\u94f3": 5956, "3100": 5957, "mc": 5958, "tell": 5959, "4m": 5960, "blue": 5961, "327": 5962, "299": 5963, "bios": 5964, "\u9f8b": 5965, "385": 5966, "\u76f1": 5967, "\u7b0f": 5968, "2030": 5969, "\u7a95": 5970, "\u82f4": 5971, "314": 5972, "big": 5973, "1866": 5974, "296": 5975, "\u840b": 5976, "355": 5977, "\u8f98": 5978, "\u742c": 5979, "cu": 5980, "\u688f": 5981, "much": 5982, "\u86a7": 5983, "3400": 5984, "1280": 5985, "\u9573": 5986, "24h": 5987, "own": 5988, "670": 5989, "studio": 5990, "\u7785": 5991, "keep": 5992, "6g": 5993, "ppt": 5994, "conference": 5995, "around": 5996, "information": 5997, "\u776c": 5998, "1878": 5999, "class": 6000, "\u504c": 6001, "\u9cb5": 6002, "\u60e6": 6003, "1830": 6004, "\u870d": 6005, "mp4": 6006, "why": 6007, "\u977c": 6008, "1851": 6009, "332": 6010, "\u9617": 6011, "\u83df": 6012, "\u9edd": 6013, "1650": 6014, "control": 6015, "\u6308": 6016, "\u5d74": 6017, "\u5261": 6018, "358": 6019, "\u6978": 6020, "dha": 6021, "\u6c24": 6022, "m1": 6023, "vr": 6024, "\u544e": 6025, "\u73f2": 6026, "5ml": 6027, "\u9984": 6028, "\u6ec2": 6029, "338": 6030, "\u8e49": 6031, "\u84d1": 6032, "\u9537": 6033, "297": 6034, "279": 6035, "\u555c": 6036, "1644": 6037, "sm": 6038, "\u5a75": 6039, "well": 6040, "\u9b23": 6041, "7cm": 6042, "\u94bf": 6043, "bbs": 6044, "\u664c": 6045, "\u86c6": 6046, "\u9697": 6047, "\u915e": 6048, "\u679e": 6049, "352": 6050, "work": 6051, "always": 6052, "9g": 6053, "\u622c": 6054, "\u737e": 6055, "\u9555": 6056, "star": 6057, "easy": 6058, "\u9968": 6059, "\u5a23": 6060, "\u7f30": 6061, "\u90be": 6062, "334": 6063, "8m": 6064, "ni": 6065, "\u9e57": 6066, "277": 6067, "425": 6068, "end": 6069, "had": 6070, "\u55d2": 6071, "\u82cb": 6072, "\u85ae": 6073, "\u68f9": 6074, "type": 6075, "richard": 6076, "880": 6077, "6m": 6078, "\u62c4": 6079, "air": 6080, "\u57d5": 6081, "\u52d6": 6082, "\u9e5e": 6083, "\u6b9a": 6084, "\u9ca2": 6085, "pop": 6086, "a4": 6087, "1750": 6088, "ftp": 6089, "16000": 6090, "\u5556": 6091, "ad": 6092, "\u6ca3": 6093, "501": 6094, "\u9765": 6095, "\u846d": 6096, "\u8bff": 6097, "htc": 6098, "\u9e2a": 6099, "007": 6100, "\u9974": 6101, "t1": 6102, "\u7596": 6103, "\u629f": 6104, "\u777d": 6105, "770": 6106, "access": 6107, "tcl": 6108, "\u7a1e": 6109, "\u540b": 6110, "\u8c00": 6111, "\u6f8d": 6112, "\u6748": 6113, "\u59a4": 6114, "sata": 6115, "part": 6116, "\u5cc4": 6117, "systems": 6118, "\u6f09": 6119, "40000": 6120, "ever": 6121, "\u6c17": 6122, "368": 6123, "\u54b2": 6124, "qs": 6125, "ta": 6126, "\u7498": 6127, "ltd": 6128, "mol": 6129, "media": 6130, "\u841c": 6131, "\u50ed": 6132, "\u6710": 6133, "742": 6134, "1855": 6135, "cc": 6136, "\u571c": 6137, "\u765e": 6138, "\u85ff": 6139, "555": 6140, "\u73c9": 6141, "isp": 6142, "set": 6143, "1450": 6144, "\u9649": 6145, "him": 6146, "\u50ee": 6147, "292": 6148, "\u81bb": 6149, "1853": 6150, "\u85b9": 6151, "810": 6152, "\u6c4a": 6153, "still": 6154, "\u9517": 6155, "\u6609": 6156, "pvp": 6157, "\u7317": 6158, "http": 6159, "1859": 6160, "3700": 6161, "strong": 6162, "3a": 6163, "\u9536": 6164, "real": 6165, "\u8ddb": 6166, "art": 6167, "1869": 6168, "331": 6169, "1368": 6170, "\u5639": 6171, "337": 6172, "\u74e4": 6173, "402": 6174, "\u8844": 6175, "1856": 6176, "1820": 6177, "1150": 6178, "matlab": 6179, "\u8c55": 6180, "\u5406": 6181, "\u8146": 6182, "thomas": 6183, "a2": 6184, "294": 6185, "le": 6186, "366": 6187, "using": 6188, "356": 6189, "bb": 6190, "\u5586": 6191, "smith": 6192, "different": 6193, "\u83b4": 6194, "401": 6195, "\u8c0c": 6196, "ci": 6197, "\u73d9": 6198, "\u75a5": 6199, "kw": 6200, "\u9c91": 6201, "405": 6202, "\u73b7": 6203, "\u86d4": 6204, "\u7800": 6205, "361": 6206, "zh": 6207, "nasa": 6208, "materials": 6209, "329": 6210, "nature": 6211, "1h": 6212, "\u8c14": 6213, "\u7765": 6214, "ch": 6215, "20mg": 6216, "2mg": 6217, "du": 6218, "mail": 6219, "data": 6220, "every": 6221, "\u8e51": 6222, "\u8bd2": 6223, "\u900b": 6224, "372": 6225, "while": 6226, "\u59dd": 6227, "\u5208": 6228, "\u5a67": 6229, "going": 6230, "\u55b3": 6231, "\u955e": 6232, "\u94cc": 6233, "291": 6234, "712": 6235, "\u8f8e": 6236, "\u9e67": 6237, "\u6aa9": 6238, "740": 6239, "\u626a": 6240, "10ml": 6241, "\u9730": 6242, "ar": 6243, "\u88c6": 6244, "ol": 6245, "\u5b37": 6246, "0mm": 6247, "ufo": 6248, "charles": 6249, "20mm": 6250, "tvb": 6251, "apple": 6252, "\u520e": 6253, "iec": 6254, "project": 6255, "sbs": 6256, "\u5d4b": 6257, "342": 6258, "690": 6259, "\u60b1": 6260, "920": 6261, "\u5624": 6262, "jean": 6263, "\u7bc1": 6264, "\u8378": 6265, "\u7791": 6266, "\u6b93": 6267, "\u643d": 6268, "50mg": 6269, "343": 6270, "\u6a47": 6271, "include": 6272, "eva": 6273, "\u96ce": 6274, "\u5f2d": 6275, "\u7350": 6276, "haccp": 6277, "\u607f": 6278, "video": 6279, "cf": 6280, "vpn": 6281, "society": 6282, "\u7726": 6283, "730": 6284, "\u94d0": 6285, "song": 6286, "\u5c15": 6287, "\u634e": 6288, "\u8bdf": 6289, "institute": 6290, "\u75e8": 6291, "cn": 6292, "369": 6293, "\u7b1e": 6294, "756": 6295, "version": 6296, "des": 6297, "sns": 6298, "\u8dba": 6299, "590": 6300, "award": 6301, "\u552c": 6302, "\u82e3": 6303, "css": 6304, "lte": 6305, "xu": 6306, "fbi": 6307, "\u557e": 6308, "\u762a": 6309, "\u57b8": 6310, "357": 6311, "\u6a79": 6312, "after": 6313, "\u6fdb": 6314, "\u66f7": 6315, "level": 6316, "\u6a3e": 6317, "very": 6318, "\u6c68": 6319, "\u4edf": 6320, "\u59d2": 6321, "1858": 6322, "again": 6323, "\u6026": 6324, "\u834f": 6325, "tom": 6326, "\u8be4": 6327, "\u82e1": 6328, "\u542d": 6329, "830": 6330, "dm": 6331, "before": 6332, "406": 6333, "\u5d06": 6334, "\u6c21": 6335, "young": 6336, "\u8129": 6337, "lan": 6338, "\u80dd": 6339, "\u948f": 6340, "3ds": 6341, "cr": 6342, "arm": 6343, "pos": 6344, "night": 6345, "\u5c50": 6346, "395": 6347, "\u5fd0": 6348, "\u5f67": 6349, "\u62da": 6350, "\u93d6": 6351, "344": 6352, "100ml": 6353, "525": 6354, "\u5b73": 6355, "1024": 6356, "yu": 6357, "\u5fd1": 6358, "384": 6359, "\u909d": 6360, "\u7a70": 6361, "403": 6362, "\u6448": 6363, "\u5e96": 6364, "351": 6365, "\u9e35": 6366, "398": 6367, "hello": 6368, "\u77fd": 6369, "354": 6370, "\u9c9f": 6371, "said": 6372, "381": 6373, "768": 6374, "\u767a": 6375, "762": 6376, "sap": 6377, "1854": 6378, "msn": 6379, "\u83c5": 6380, "book": 6381, "353": 6382, "true": 6383, "339": 6384, "javascript": 6385, "348": 6386, "2900": 6387, "\u572a": 6388, "\u8e4b": 6389, "\u887e": 6390, "\u7c0b": 6391, "\u748e": 6392, "367": 6393, "\u564e": 6394, "911": 6395, "\u5b17": 6396, "346": 6397, "\u80bc": 6398, "362": 6399, "359": 6400, "\u8dce": 6401, "\u6edf": 6402, "little": 6403, "4300": 6404, "701": 6405, "\u6226": 6406, "\u5d6c": 6407, "look": 6408, "\u4edd": 6409, "phys": 6410, "club": 6411, "\u60c7": 6412, "\u7ebe": 6413, "times": 6414, "14000": 6415, "\u7081": 6416, "382": 6417, "xyz": 6418, "number": 6419, "ak": 6420, "mind": 6421, "huang": 6422, "\u95f3": 6423, "\u9a90": 6424, "\u79e3": 6425, "\u7719": 6426, "\u8c18": 6427, "\u7893": 6428, "iso9002": 6429, "\u7594": 6430, "412": 6431, "\u6042": 6432, "am": 6433, "top": 6434, "master": 6435, "\u9cd5": 6436, "green": 6437, "\u9e31": 6438, "int": 6439, "\u7228": 6440, "\u954a": 6441, "404": 6442, "were": 6443, "4600": 6444, "em": 6445, "better": 6446, "\u94af": 6447, "\u572e": 6448, "\u697d": 6449, "\u5800": 6450, "1852": 6451, "408": 6452, "sat": 6453, "1857": 6454, "378": 6455, "422": 6456, "\u8198": 6457, "705": 6458, "\u5657": 6459, "347": 6460, "start": 6461, "486": 6462, "\u9539": 6463, "505": 6464, "\u677c": 6465, "\u914a": 6466, "same": 6467, "376": 6468, "white": 6469, "\u630e": 6470, "\u7bb8": 6471, "\u90d7": 6472, "\u578c": 6473, "sa": 6474, "\u6e8f": 6475, "martin": 6476, "\u852b": 6477, "\u507b": 6478, "364": 6479, "\u59ab": 6480, "\u98da": 6481, "625": 6482, "601": 6483, "\u8f94": 6484, "\u6fec": 6485, "666": 6486, "ds": 6487, "\u7444": 6488, "621": 6489, "\u89da": 6490, "5600": 6491, "nhk": 6492, "415": 6493, "express": 6494, "\u94cd": 6495, "bit": 6496, "\u8dda": 6497, "9mm": 6498, "\u7fd5": 6499, "\u714a": 6500, "these": 6501, "50mm": 6502, "gpu": 6503, "b6": 6504, "hip": 6505, "\u8004": 6506, "\u94cb": 6507, "\u7be6": 6508, "zhou": 6509, "\u9607": 6510, "\u9a9b": 6511, "nvidia": 6512, "\u83aa": 6513, "\u5432": 6514, "youtube": 6515, "\u5501": 6516, "870": 6517, "\u7ba7": 6518, "503": 6519, "tm": 6520, "8500": 6521, "really": 6522, "\u73c5": 6523, "\u6f4b": 6524, "\u8fe8": 6525, "\u54fd": 6526, "without": 6527, "\u7826": 6528, "model": 6529, "\u7f17": 6530, "hey": 6531, "\u8b07": 6532, "\u5478": 6533, "mrna": 6534, "\u5793": 6535, "\u7ccd": 6536, "park": 6537, "wap": 6538, "\u74a0": 6539, "\u59a3": 6540, "\u72ce": 6541, "\u6525": 6542, "396": 6543, "\u95c7": 6544, "york": 6545, "\u86c9": 6546, "\u7441": 6547, "joe": 6548, "\u817c": 6549, "\u8e52": 6550, "great": 6551, "review": 6552, "200mg": 6553, "chris": 6554, "www": 6555, "\u5db7": 6556, "online": 6557, "\u83a0": 6558, "\u6ca4": 6559, "\u54da": 6560, "475": 6561, "\u9051": 6562, "v1": 6563, "such": 6564, "\u8dfa": 6565, "\u81a6": 6566, "\u8e7f": 6567, "unix": 6568, "hard": 6569, "40cm": 6570, "50cm": 6571, "nothing": 6572, "\u90eb": 6573, "zhao": 6574, "\u73b3": 6575, "ma": 6576, "boy": 6577, "\u57da": 6578, "url": 6579, "432": 6580, "network": 6581, "aaaa": 6582, "\u887f": 6583, "371": 6584, "try": 6585, "\u91aa": 6586, "full": 6587, "\u6339": 6588, "raid": 6589, "bg": 6590, "\u7ee1": 6591, "\u6c5c": 6592, "digital": 6593, "mb": 6594, "c1": 6595, "\u5769": 6596, "ccc": 6597, "\u65c3": 6598, "5200": 6599, "607": 6600, "itunes": 6601, "powerpoint": 6602, "\u9e28": 6603, "between": 6604, "407": 6605, "\u7fc8": 6606, "1842": 6607, "1844": 6608, "435": 6609, "838": 6610, "\u62a1": 6611, "chemistry": 6612, "team": 6613, "party": 6614, "die": 6615, "\u665e": 6616, "place": 6617, "care": 6618, "\u76e5": 6619, "\u85c1": 6620, "\u84d6": 6621, "383": 6622, "cv": 6623, "\u81ca": 6624, "made": 6625, "state": 6626, "465": 6627, "\u7fb0": 6628, "388": 6629, "1620": 6630, "sas": 6631, "\u695d": 6632, "\u5671": 6633, "ji": 6634, "\u997d": 6635, "\u82cc": 6636, "soho": 6637, "\u8913": 6638, "\u4f76": 6639, "mp": 6640, "581": 6641, "years": 6642, "1260": 6643, "1680": 6644, "hop": 6645, "\u7a1c": 6646, "\u77a0": 6647, "\u4ee1": 6648, "25mm": 6649, "605": 6650, "423": 6651, "341": 6652, "363": 6653, "374": 6654, "627": 6655, "text": 6656, "development": 6657, "518": 6658, "\u4f09": 6659, "\u8941": 6660, "ug": 6661, "change": 6662, "713": 6663, "\u6d9e": 6664, "1849": 6665, "\u8707": 6666, "\u62bf": 6667, "\u7457": 6668, "pda": 6669, "418": 6670, "un": 6671, "line": 6672, "958": 6673, "\u5b71": 6674, "\u61d1": 6675, "416": 6676, "von": 6677, "373": 6678, "\u6de6": 6679, "\u8d5d": 6680, "core": 6681, "dns": 6682, "747": 6683, "427": 6684, "387": 6685, "would": 6686, "ipo": 6687, "\u918c": 6688, "551": 6689, "\u7f2b": 6690, "\u8832": 6691, "alt": 6692, "\u5693": 6693, "\u9cb7": 6694, "\u6e6b": 6695, "\u634b": 6696, "1845": 6697, "\u54a9": 6698, "\u88cf": 6699, "avi": 6700, "\u7292": 6701, "2050": 6702, "\u5880": 6703, "yeah": 6704, "god": 6705, "445": 6706, "lesson": 6707, "\u7850": 6708, "\u8538": 6709, "399": 6710, "758": 6711, "pu": 6712, "computer": 6713, "456": 6714, "\u94bd": 6715, "1847": 6716, "\u9e82": 6717, "brown": 6718, "store": 6719, "\u84a1": 6720, "\u9f39": 6721, "\u7efb": 6722, "1821": 6723, "\u933e": 6724, "\u4ec3": 6725, "515": 6726, "\u7bd9": 6727, "\u8564": 6728, "589": 6729, "applied": 6730, "737": 6731, "930": 6732, "c3": 6733, "1841": 6734, "\u94e4": 6735, "billboard": 6736, "apec": 6737, "\u69c1": 6738, "\u7256": 6739, "\u8788": 6740, "mary": 6741, "\u4fe6": 6742, "family": 6743, "\u7b04": 6744, "color": 6745, "\u557b": 6746, "\u5bfe": 6747, "jsp": 6748, "\u90e4": 6749, "next": 6750, "iq": 6751, "645": 6752, "506": 6753, "hbv": 6754, "\u95fc": 6755, "a3": 6756, "349": 6757, "value": 6758, "413": 6759, "igg": 6760, "411": 6761, "426": 6762, "\u91ba": 6763, "\u8d4d": 6764, "\u6a97": 6765, "usa": 6766, "\u88fe": 6767, "head": 6768, "\u566b": 6769, "\u63b8": 6770, "mike": 6771, "\u7b93": 6772, "usb2": 6773, "things": 6774, "5800": 6775, "5v": 6776, "o2": 6777, "\u59aa": 6778, "\u4e42": 6779, "\u8748": 6780, "\u783b": 6781, "\u80cd": 6782, "220v": 6783, "392": 6784, "cba": 6785, "397": 6786, "535": 6787, "idc": 6788, "analysis": 6789, "25mg": 6790, "\u8731": 6791, "ti": 6792, "2h": 6793, "\u8043": 6794, "\u96e0": 6795, "\u789a": 6796, "\u6924": 6797, "\u7f2f": 6798, "\u6634": 6799, "890": 6800, "\u7f31": 6801, "\u794e": 6802, "der": 6803, "\u7f2c": 6804, "ex": 6805, "508": 6806, "\u94d9": 6807, "cnc": 6808, "pentium": 6809, "\u5b40": 6810, "533": 6811, "advanced": 6812, "mpa": 6813, "yl": 6814, "\u7b33": 6815, "\u8607": 6816, "\u6106": 6817, "685": 6818, "\u6989": 6819, "old": 6820, "\u6c19": 6821, "call": 6822, "alex": 6823, "\u71f9": 6824, "\u6482": 6825, "\u83fd": 6826, "583": 6827, "\u7bac": 6828, "\u86c4": 6829, "\u7638": 6830, "\u5b1b": 6831, "495": 6832, "\u6a50": 6833, "could": 6834, "60000": 6835, "something": 6836, "\u7ea1": 6837, "\u523d": 6838, "\u8f82": 6839, "hong": 6840, "377": 6841, "law": 6842, "\u84af": 6843, "\u90a8": 6844, "1846": 6845, "1550": 6846, "r2": 6847, "1837": 6848, "\u8d40": 6849, "player": 6850, "414": 6851, "\u8df8": 6852, "phone": 6853, "\u9099": 6854, "hold": 6855, "rgb": 6856, "421": 6857, "henry": 6858, "2025": 6859, "\u9edf": 6860, "409": 6861, "\u78f4": 6862, "1815": 6863, "mode": 6864, "1843": 6865, "\u95ff": 6866, "504": 6867, "letters": 6868, "1780": 6869, "428": 6870, "\u579f": 6871, "389": 6872, "t2": 6873, "london": 6874, "528": 6875, "jpeg": 6876, "\u5d6f": 6877, "\u949a": 6878, "steve": 6879, "\u8dc4": 6880, "30min": 6881, "527": 6882, "\u6f78": 6883, "h2": 6884, "35000": 6885, "\u5d34": 6886, "eric": 6887, "379": 6888, "run": 6889, "three": 6890, "rf": 6891, "left": 6892, "455": 6893, "\u6041": 6894, "open": 6895, "\u696e": 6896, "556": 6897, "bc": 6898, "476": 6899, "\u8167": 6900, "458": 6901, "plus": 6902, "1812": 6903, "1839": 6904, "\u80e8": 6905, "b12": 6906, "4d": 6907, "\u82ab": 6908, "america": 6909, "est": 6910, "dream": 6911, "\u78b4": 6912, "\u96b0": 6913, "\u6753": 6914, "md": 6915, "ya": 6916, "global": 6917, "436": 6918, "15mm": 6919, "2ml": 6920, "\u8c89": 6921, "\u6b39": 6922, "sup3": 6923, "\u4f91": 6924, "ea": 6925, "\u9cdc": 6926, "910": 6927, "ben": 6928, "\u94c4": 6929, "\u6934": 6930, "\u6607": 6931, "\u918d": 6932, "1020": 6933, "798": 6934, "midi": 6935, "\u8093": 6936, "features": 6937, "lc": 6938, "brian": 6939, "akb48": 6940, "\u7f02": 6941, "1835": 6942, "test": 6943, "\u94e1": 6944, "light": 6945, "978": 6946, "s1": 6947, "1799": 6948, "key": 6949, "sim": 6950, "1795": 6951, "simple": 6952, "energy": 6953, "\u8e60": 6954, "\u5f82": 6955, "west": 6956, "725": 6957, "body": 6958, "\u8c62": 6959, "424": 6960, "face": 6961, "\u84bd": 6962, "lin": 6963, "805": 6964, "1120": 6965, "479": 6966, "\u83e1": 6967, "bill": 6968, "433": 6969, "\u8872": 6970, "\u961a": 6971, "believe": 6972, "brt": 6973, "pa": 6974, "last": 6975, "\u8297": 6976, "hu": 6977, "sam": 6978, "wei": 6979, "adsl": 6980, "602": 6981, "mk": 6982, "\u75cd": 6983, "\u73a0": 6984, "1832": 6985, "523": 6986, "\u6677": 6987, "604": 6988, "jj": 6989, "468": 6990, "\u6ddd": 6991, "1560": 6992, "\u912f": 6993, "ck": 6994, "473": 6995, "\u7cd7": 6996, "\u8028": 6997, "\u69a7": 6998, "394": 6999, "940": 7000, "eq": 7001, "498": 7002, "used": 7003, "sc": 7004, "\u80f4": 7005, "c2": 7006, "\u8548": 7007, "screen": 7008, "\u956c": 7009, "635": 7010, "\u9f3e": 7011, "431": 7012, "education": 7013, "wwe": 7014, "\u646d": 7015, "\u9e2e": 7016, "cl": 7017, "5400": 7018, "fpga": 7019, "\u605a": 7020, "419": 7021, "\u5b9f": 7022, "asia": 7023, "534": 7024, "552": 7025, "\u781d": 7026, "100mm": 7027, "pid": 7028, "741": 7029, "\u73e3": 7030, "under": 7031, "603": 7032, "\u5be4": 7033, "\u57d9": 7034, "mbc": 7035, "tc": 7036, "xxx": 7037, "didn": 7038, "478": 7039, "mn": 7040, "p1": 7041, "\u950f": 7042, "simon": 7043, "ansi": 7044, "438": 7045, "hi": 7046, "615": 7047, "\u559f": 7048, "\u8605": 7049, "\u9aba": 7050, "cell": 7051, "\u636d": 7052, "study": 7053, "586": 7054, "393": 7055, "\u839c": 7056, "should": 7057, "xi": 7058, "\u7f36": 7059, "f2": 7060, "games": 7061, "0g": 7062, "1760": 7063, "mini": 7064, "johnson": 7065, "jones": 7066, "yes": 7067, "\u951f": 7068, "1825": 7069, "\u53f5": 7070, "cm3": 7071, "\u70b7": 7072, "1580": 7073, "stay": 7074, "675": 7075, "another": 7076, "6800": 7077, "\u9ca7": 7078, "1736": 7079, "ps2": 7080, "\u80fc": 7081, "517": 7082, "\u67fb": 7083, "\u5cac": 7084, "2019": 7085, "1640": 7086, "rose": 7087, "\u9e42": 7088, "\u726f": 7089, "\u73e5": 7090, "entertainment": 7091, "448": 7092, "und": 7093, "496": 7094, "\u83bc": 7095, "software": 7096, "970": 7097, "\u90a0": 7098, "5300": 7099, "h1n1": 7100, "488": 7101, "da": 7102, "\u7707": 7103, "\u535f": 7104, "\u5909": 7105, "20m": 7106, "may": 7107, "417": 7108, "lady": 7109, "galaxy": 7110, "4100": 7111, "\u60f4": 7112, "1789": 7113, "846": 7114, "801": 7115, "\u6e11": 7116, "907": 7117, "put": 7118, "\u86b1": 7119, "gone": 7120, "606": 7121, "t3": 7122, "company": 7123, "632": 7124, "454": 7125, "516": 7126, "998": 7127, "548": 7128, "391": 7129, "4700": 7130, "\u778c": 7131, "ide": 7132, "\u7630": 7133, "7200": 7134, "\u4f5d": 7135, "together": 7136, "street": 7137, "\u65f8": 7138, "626": 7139, "\u887d": 7140, "\u90c5": 7141, "\u5941": 7142, "731": 7143, "30mg": 7144, "mvp": 7145, "1370": 7146, "60cm": 7147, "12cm": 7148, "\u9b51": 7149, "1828": 7150, "628": 7151, "everything": 7152, "612": 7153, "san": 7154, "937": 7155, "\u7f1b": 7156, "2gb": 7157, "lu": 7158, "angel": 7159, "20ml": 7160, "576": 7161, "\u9899": 7162, "sony": 7163, "790": 7164, "press": 7165, "\u956b": 7166, "hall": 7167, "\u7c0c": 7168, "beautiful": 7169, "\u8c47": 7170, "711": 7171, "453": 7172, "pm": 7173, "\u59f9": 7174, "thing": 7175, "442": 7176, "\u908b": 7177, "alpha": 7178, "leave": 7179, "\u669d": 7180, "441": 7181, "30mm": 7182, "chapter": 7183, "507": 7184, "100000": 7185, "526": 7186, "directx": 7187, "511": 7188, "9cm": 7189, "words": 7190, "\u91d0": 7191, "619": 7192, "\u6d39": 7193, "444": 7194, "frank": 7195, "\u54bf": 7196, "eyes": 7197, "483": 7198, "\u4ff3": 7199, "522": 7200, "\u870a": 7201, "\u9190": 7202, "541": 7203, "water": 7204, "499": 7205, "\u8069": 7206, "non": 7207, "bob": 7208, "\u577b": 7209, "532": 7210, "757": 7211, "545": 7212, "\u6bfd": 7213, "oo": 7214, "\u55be": 7215, "alone": 7216, "scott": 7217, "744": 7218, "\u8f8b": 7219, "river": 7220, "zhu": 7221, "\u500c": 7222, "\u5aaa": 7223, "\u86f3": 7224, "\u6ef9": 7225, "\u54d9": 7226, "nc": 7227, "20g": 7228, "\u960a": 7229, "gs": 7230, "queen": 7231, "\u8db8": 7232, "1130": 7233, "1645": 7234, "\u7962": 7235, "4mg": 7236, "1814": 7237, "girls": 7238, "544": 7239, "e1": 7240, "\u7c40": 7241, "1210": 7242, "1573": 7243, "\u5fbc": 7244, "ipv6": 7245, "\u8a3e": 7246, "\u9ac1": 7247, "1a": 7248, "jackson": 7249, "\u781c": 7250, "1836": 7251, "les": 7252, "4gb": 7253, "\u64b8": 7254, "\u74d8": 7255, "1790": 7256, "\u7f01": 7257, "\u9553": 7258, "sars": 7259, "eps": 7260, "519": 7261, "sod": 7262, "bp": 7263, "1810": 7264, "year": 7265, "\u7e3b": 7266, "sound": 7267, "617": 7268, "\u83c0": 7269, "1125": 7270, "598": 7271, "\u9162": 7272, "\u6860": 7273, "466": 7274, "emc": 7275, "\u64b5": 7276, "\u600f": 7277, "429": 7278, "1838": 7279, "ready": 7280, "\u6e0c": 7281, "546": 7282, "taylor": 7283, "452": 7284, "news": 7285, "1180": 7286, "568": 7287, "2a": 7288, "af": 7289, "538": 7290, "list": 7291, "hot": 7292, "1380": 7293, "etc": 7294, "1796": 7295, "\u645e": 7296, "mo": 7297, "\u69f2": 7298, "levels": 7299, "ht": 7300, "\u6d60": 7301, "\u8bdc": 7302, "\u9b49": 7303, "\u97eb": 7304, "daniel": 7305, "\u4e93": 7306, "\u76e4": 7307, "pv": 7308, "\u746d": 7309, "\u9b4d": 7310, "1831": 7311, "emi": 7312, "\u895e": 7313, "social": 7314, "dreamweaver": 7315, "\u723f": 7316, "kbs": 7317, "565": 7318, "613": 7319, "990": 7320, "\u6d43": 7321, "\u6a2f": 7322, "jb": 7323, "\u8bb5": 7324, "\u63e9": 7325, "physics": 7326, "\u800b": 7327, "\u5e0f": 7328, "lng": 7329, "\u5d03": 7330, "bs": 7331, "457": 7332, "enough": 7333, "shy": 7334, "521": 7335, "596": 7336, "ec": 7337, "451": 7338, "\u9e29": 7339, "\u9062": 7340, "turn": 7341, "\u81c3": 7342, "available": 7343, "4400": 7344, "585": 7345, "\u7cbf": 7346, "1010": 7347, "\u79b3": 7348, "hand": 7349, "439": 7350, "536": 7351, "\u686b": 7352, "link": 7353, "side": 7354, "earth": 7355, "mx": 7356, "\u9af9": 7357, "7m": 7358, "482": 7359, "\u8bf3": 7360, "472": 7361, "1140": 7362, "707": 7363, "622": 7364, "wcdma": 7365, "513": 7366, "must": 7367, "492": 7368, "462": 7369, "\u8e09": 7370, "40mg": 7371, "948": 7372, "cmax": 7373, "\u90c3": 7374, "1320": 7375, "v2": 7376, "542": 7377, "email": 7378, "493": 7379, "\u55d6": 7380, "sup": 7381, "\u8ba7": 7382, "cnn": 7383, "446": 7384, "\u7881": 7385, "17000": 7386, "\u6e4e": 7387, "30m": 7388, "529": 7389, "653": 7390, "531": 7391, "575": 7392, "\u960f": 7393, "sr": 7394, "united": 7395, "pm2": 7396, "mt": 7397, "\u5abe": 7398, "443": 7399, "\u69d8": 7400, "aac": 7401, "806": 7402, "\u54d4": 7403, "\u8238": 7404, "vb": 7405, "611": 7406, "\u66e9": 7407, "821": 7408, "gre": 7409, "gl": 7410, "cisco": 7411, "\u5fdd": 7412, "\u5cc1": 7413, "\u6382": 7414, "464": 7415, "\u8473": 7416, "487": 7417, "437": 7418, "including": 7419, "715": 7420, "\u9104": 7421, "558": 7422, "both": 7423, "\u8c35": 7424, "463": 7425, "jim": 7426, "608": 7427, "m4": 7428, "5100": 7429, "\u5f4a": 7430, "\u9534": 7431, "war": 7432, "\u90dc": 7433, "money": 7434, "481": 7435, "\u8456": 7436, "1824": 7437, "tnt": 7438, "\u84c7": 7439, "\u74f4": 7440, "\u9cdf": 7441, "\u6a7c": 7442, "5s": 7443, "louis": 7444, "434": 7445, "\u9c87": 7446, "\u9097": 7447, "el": 7448, "\u7284": 7449, "\u79ed": 7450, "3900": 7451, "records": 7452, "view": 7453, "chemical": 7454, "1001": 7455, "1mol": 7456, "dance": 7457, "668": 7458, "dl": 7459, "\u69ed": 7460, "\u7f35": 7461, "que": 7462, "624": 7463, "rt": 7464, "1823": 7465, "1805": 7466, "005": 7467, "1826": 7468, "\u5def": 7469, "sgs": 7470, "user": 7471, "\u9f8a": 7472, "qc": 7473, "\u72cd": 7474, "island": 7475, "language": 7476, "space": 7477, "\u64de": 7478, "saint": 7479, "2n": 7480, "pt": 7481, "share": 7482, "\u77bd": 7483, "hotel": 7484, "christian": 7485, "557": 7486, "\u6832": 7487, "\u6485": 7488, "2b": 7489, "1801": 7490, "447": 7491, "1822": 7492, "\u7440": 7493, "smt": 7494, "hk": 7495, "1834": 7496, "\u6222": 7497, "825": 7498, "50ml": 7499, "\u6713": 7500, "\u9016": 7501, "general": 7502, "\u6939": 7503, "nm": 7504, "\u6d3a": 7505, "cae": 7506, "484": 7507, "\u824f": 7508, "wma": 7509, "zn": 7510, "\u82c1": 7511, "single": 7512, "599": 7513, "c4": 7514, "\u6ed8": 7515, "777": 7516, "\u94e7": 7517, "\u4faa": 7518, "ocirc": 7519, "1kg": 7520, "684": 7521, "\u8c73": 7522, "skf": 7523, "12mm": 7524, "489": 7525, "hla": 7526, "\u7ae6": 7527, "\u8c94": 7528, "ld": 7529, "being": 7530, "562": 7531, "\u5704": 7532, "van": 7533, "gm": 7534, "688": 7535, "655": 7536, "special": 7537, "\u5477": 7538, "edition": 7539, "1s": 7540, "jiang": 7541, "131108": 7542, "514": 7543, "1792": 7544, "ncaa": 7545, "1833": 7546, "\u65c4": 7547, "\u905b": 7548, "jr": 7549, "program": 7550, "656": 7551, "467": 7552, "ing": 7553, "901": 7554, "755": 7555, "509": 7556, "\u8288": 7557, "kong": 7558, "rp": 7559, "\u7823": 7560, "\u6877": 7561, "audio": 7562, "icp": 7563, "happy": 7564, "\u9f8c": 7565, "done": 7566, "\u75ac": 7567, "japan": 7568, "ts": 7569, "mit": 7570, "p2": 7571, "524": 7572, "looking": 7573, "miss": 7574, "\u7f1f": 7575, "582": 7576, "\u6d0c": 7577, "35mm": 7578, "494": 7579, "grand": 7580, "\u8dcf": 7581, "those": 7582, "joseph": 7583, "ctrl": 7584, "547": 7585, "1040": 7586, "686": 7587, "\u876e": 7588, "lp": 7589, "cod": 7590, "\u83f0": 7591, "sio2": 7592, "txt": 7593, "1770": 7594, "1060": 7595, "\u5e11": 7596, "767": 7597, "north": 7598, "fcc": 7599, "\u6019": 7600, "ester": 7601, "718": 7602, "story": 7603, "edi": 7604, "634": 7605, "1360": 7606, "\u8c78": 7607, "1660": 7608, "lh": 7609, "\u96e9": 7610, "1230": 7611, "magic": 7612, "\u8a8a": 7613, "549": 7614, "\u81ec": 7615, "4k": 7616, "op": 7617, "1662": 7618, "651": 7619, "\u9563": 7620, "\u7b87": 7621, "616": 7622, "title": 7623, "sciences": 7624, "25cm": 7625, "\u8e31": 7626, "s2": 7627, "t4": 7628, "\u948d": 7629, "648": 7630, "100m": 7631, "543": 7632, "588": 7633, "\u82eb": 7634, "554": 7635, "\u877d": 7636, "r1": 7637, "3mg": 7638, "amino": 7639, "1776": 7640, "\u6d6f": 7641, "609": 7642, "772": 7643, "ca2": 7644, "vlan": 7645, "469": 7646, "500mg": 7647, "\u5358": 7648, "road": 7649, "\u4eb6": 7650, "636": 7651, "metal": 7652, "device": 7653, "40mm": 7654, "\u56f9": 7655, "\u7a51": 7656, "1730": 7657, "\u4f7b": 7658, "1818": 7659, "\u7ecc": 7660, "12g": 7661, "537": 7662, "\u8bd4": 7663, "pve": 7664, "autodesk": 7665, "477": 7666, "v8": 7667, "ray": 7668, "gp": 7669, "span": 7670, "gc": 7671, "size": 7672, "716": 7673, "\u9e6c": 7674, "ssl": 7675, "crt": 7676, "1670": 7677, "925": 7678, "\u9acc": 7679, "pn": 7680, "1127": 7681, "702": 7682, "658": 7683, "services": 7684, "support": 7685, "1802": 7686, "\u848c": 7687, "coming": 7688, "experience": 7689, "nbc": 7690, "\u9ccf": 7691, "631": 7692, "638": 7693, "ace": 7694, "0cm": 7695, "ems": 7696, "9001": 7697, "\u6b84": 7698, "yen": 7699, "soc": 7700, "ethyl": 7701, "\u601b": 7702, "tf": 7703, "\u7b4c": 7704, "\u5233": 7705, "studies": 7706, "theory": 7707, "1030": 7708, "578": 7709, "radio": 7710, "\u7fee": 7711, "\u534d": 7712, "\u7579": 7713, "471": 7714, "704": 7715, "because": 7716, "1610": 7717, "\u7b9c": 7718, "save": 7719, "\u71d4": 7720, "\u8d73": 7721, "553": 7722, "1809": 7723, "\u7bcc": 7724, "\u7aa8": 7725, "\u7fe5": 7726, "785": 7727, "\u7085": 7728, "\u9495": 7729, "lett": 7730, "803": 7731, "1827": 7732, "academy": 7733, "ed": 7734, "629": 7735, "sf": 7736, "pr": 7737, "hill": 7738, "explorer": 7739, "future": 7740, "food": 7741, "\u83b3": 7742, "662": 7743, "567": 7744, "dcs": 7745, "\u5fd6": 7746, "\u6221": 7747, "1086": 7748, "1190": 7749, "1829": 7750, "bad": 7751, "es": 7752, "15m": 7753, "order": 7754, "spring": 7755, "\u6ca2": 7756, "south": 7757, "497": 7758, "025": 7759, "move": 7760, "\u72d2": 7761, "1630": 7762, "\u5709": 7763, "abb": 7764, "449": 7765, "learn": 7766, "l0": 7767, "d2": 7768, "5d": 7769, "wav": 7770, "\u742f": 7771, "\u90b0": 7772, "cis": 7773, "quality": 7774, "odm": 7775, "926": 7776, "acta": 7777, "root": 7778, "smart": 7779, "1661": 7780, "\u82fe": 7781, "cm2": 7782, "photos": 7783, "l2": 7784, "via": 7785, "sk": 7786, "\u72b8": 7787, "623": 7788, "\u90a1": 7789, "feeling": 7790, "572": 7791, "\u90cf": 7792, "\u8966": 7793, "python": 7794, "bmw": 7795, "888": 7796, "guo": 7797, "epa": 7798, "williams": 7799, "\u6c86": 7800, "813": 7801, "bot": 7802, "read": 7803, "function": 7804, "wilson": 7805, "1723": 7806, "enterprise": 7807, "\u739f": 7808, "50hz": 7809, "s26": 7810, "fire": 7811, "engineer": 7812, "tony": 7813, "1819": 7814, "\u6fc9": 7815, "rh": 7816, "\u6d0e": 7817, "\u83a8": 7818, "\u6c18": 7819, "pb": 7820, "\u549b": 7821, "1720": 7822, "\u4f7a": 7823, "1460": 7824, "815": 7825, "cbs": 7826, "\u8169": 7827, "beta": 7828, "\u9cd4": 7829, "1735": 7830, "yan": 7831, "1gb": 7832, "x2": 7833, "\u525c": 7834, "\u79d5": 7835, "\u725d": 7836, "\u82a8": 7837, "din": 7838, "\u95a2": 7839, "del": 7840, "sms": 7841, "649": 7842, "pal": 7843, "1369": 7844, "far": 7845, "maya": 7846, "654": 7847, "\u62ca": 7848, "812": 7849, "595": 7850, "\u7ad1": 7851, "50m": 7852, "\u5739": 7853, "close": 7854, "eos": 7855, "\u98a1": 7856, "1420": 7857, "6300": 7858, "1816": 7859, "wrong": 7860, "break": 7861, "573": 7862, "765": 7863, "file": 7864, "friend": 7865, "002": 7866, "\u647a": 7867, "683": 7868, "nx": 7869, "\u6ca9": 7870, "\u8709": 7871, "please": 7872, "1170": 7873, "ro": 7874, "6400": 7875, "\u7b5a": 7876, "nick": 7877, "acm": 7878, "\u6114": 7879, "ati": 7880, "point": 7881, "\u809f": 7882, "766": 7883, "\u4ff6": 7884, "fast": 7885, "ata": 7886, "d1": 7887, "678": 7888, "geforce": 7889, "1710": 7890, "yahoo": 7891, "\u5803": 7892, "\u7ec9": 7893, "mysql": 7894, "1793": 7895, "\u596d": 7896, "gap": 7897, "iso14000": 7898, "uk": 7899, "astm": 7900, "h2o": 7901, "n2": 7902, "film": 7903, "method": 7904, "1804": 7905, "\u7f45": 7906, "so2": 7907, "\u55f3": 7908, "665": 7909, "adam": 7910, "uc": 7911, "\u8722": 7912, "1806": 7913, "1775": 7914, "photo": 7915, "\u75a0": 7916, "474": 7917, "image": 7918, "200mm": 7919, "sure": 7920, "561": 7921, "\u5e14": 7922, "\u9ae1": 7923, "643": 7924, "\u9ee5": 7925, "1813": 7926, "proceedings": 7927, "\u891b": 7928, "\u67f0": 7929, "beyond": 7930, "royal": 7931, "else": 7932, "eda": 7933, "808": 7934, "ddr": 7935, "gif": 7936, "\u93ca": 7937, "l1": 7938, "\u75fc": 7939, "571": 7940, "waiting": 7941, "\u581e": 7942, "code": 7943, "652": 7944, "rss": 7945, "learning": 7946, "\u55dd": 7947, "461": 7948, "beijing": 7949, "\u5a09": 7950, "566": 7951, "577": 7952, "708": 7953, "1520": 7954, "689": 7955, "kevin": 7956, "human": 7957, "661": 7958, "539": 7959, "875": 7960, "1811": 7961, "ssci": 7962, "6600": 7963, "\u6215": 7964, "587": 7965, "735": 7966, "3s": 7967, "\u94f1": 7968, "\u801c": 7969, "\u89e5": 7970, "867": 7971, "\u9552": 7972, "584": 7973, "\u5453": 7974, "1522": 7975, "904": 7976, "case": 7977, "1101": 7978, "491": 7979, "1080p": 7980, "history": 7981, "\u84b9": 7982, "\u6831": 7983, "im": 7984, "564": 7985, "f4": 7986, "\u536e": 7987, "\u741a": 7988, "salt": 7989, "jason": 7990, "rohs": 7991, "12v": 7992, "hydroxy": 7993, "\u9026": 7994, "modem": 7995, "font": 7996, "\u9169": 7997, "\u84cd": 7998, "cry": 7999, "65536": 8000, "health": 8001, "\u867a": 8002, "1798": 8003, "tonight": 8004, "small": 8005, "\u8c20": 8006, "1570": 8007, "1220": 8008, "jane": 8009, "against": 8010, "597": 8011, "751": 8012, "459": 8013, "bd": 8014, "\u9f0b": 8015, "\u7117": 8016, "udp": 8017, "process": 8018, "1070": 8019, "1807": 8020, "children": 8021, "8g": 8022, "eb": 8023, "62mm": 8024, "22000": 8025, "add": 8026, "1440": 8027, "\u8934": 8028, "rm": 8029, "25g": 8030, "ccedil": 8031, "706": 8032, "714": 8033, "5l": 8034, "\u7812": 8035, "\u8d67": 8036, "\u86cf": 8037, "709": 8038, "\u86ac": 8039, "1530": 8040, "\u7615": 8041, "5h": 8042, "559": 8043, "jay": 8044, "iga": 8045, "020": 8046, "fall": 8047, "scsi": 8048, "\u9857": 8049, "isdn": 8050, "death": 8051, "563": 8052, "today": 8053, "\u6120": 8054, "dvi": 8055, "\u52e3": 8056, "wait": 8057, "1642": 8058, "\u98d5": 8059, "\u5fb3": 8060, "\u6ee2": 8061, "\u7407": 8062, "\u9cd9": 8063, "db": 8064, "\u779f": 8065, "\u5c3b": 8066, "force": 8067, "400mg": 8068, "\u6fb6": 8069, "\u837d": 8070, "\u8210": 8071, "arts": 8072, "ha": 8073, "east": 8074, "lost": 8075, "effects": 8076, "1628": 8077, "album": 8078, "harry": 8079, "633": 8080, "dark": 8081, "public": 8082, "2250": 8083, "soul": 8084, "826": 8085, "659": 8086, "exo": 8087, "\u4f82": 8088, "733": 8089, "se": 8090, "\u9efc": 8091, "icu": 8092, "4h": 8093, "market": 8094, "\u6f5f": 8095, "7800": 8096, "\u7ec2": 8097, "\u7617": 8098, "ngc": 8099, "1794": 8100, "crazy": 8101, "\u84e5": 8102, "\u7afd": 8103, "\u6fde": 8104, "igm": 8105, "scdma": 8106, "6200": 8107, "cb": 8108, "835": 8109, "699": 8110, "\u9a96": 8111, "\u5041": 8112, "bmp": 8113, "809": 8114, "1270": 8115, "oled": 8116, "\u5fdc": 8117, "1160": 8118, "1621": 8119, "\u951c": 8120, "g3": 8121, "ova": 8122, "cheng": 8123, "614": 8124, "\u530f": 8125, "thinkpad": 8126, "\u8d51": 8127, "fps": 8128, "create": 8129, "kim": 8130, "\u8ba6": 8131, "1480": 8132, "\u8be8": 8133, "1540": 8134, "rev": 8135, "1v1": 8136, "\u7f58": 8137, "fans": 8138, "\u5dd6": 8139, "1740": 8140, "ag": 8141, "\u5ad8": 8142, "1649": 8143, "ps3": 8144, "908": 8145, "\u9880": 8146, "g1": 8147, "703": 8148, "\u5cbf": 8149, "v3": 8150, "\u867b": 8151, "936": 8152, "fl": 8153, "c2c": 8154, "\u7f74": 8155, "environmental": 8156, "paris": 8157, "594": 8158, "hear": 8159, "\u56d7": 8160, "jump": 8161, "communications": 8162, "\u6e86": 8163, "talk": 8164, "\u5664": 8165, "824": 8166, "\u9a9d": 8167, "003": 8168, "\u5482": 8169, "695": 8170, "728": 8171, "e2": 8172, "nec": 8173, "iptv": 8174, "1797": 8175, "kelly": 8176, "500ml": 8177, "\u951b": 8178, "721": 8179, "rc": 8180, "1808": 8181, "ldl": 8182, "1240": 8183, "\u69ca": 8184, "radeon": 8185, "676": 8186, "\u5555": 8187, "tang": 8188, "plant": 8189, "50g": 8190, "\u9a7d": 8191, "professional": 8192, "\u51c7": 8193, "698": 8194, "s36": 8195, "lord": 8196, "search": 8197, "alan": 8198, "\u7c74": 8199, "pd": 8200, "1403": 8201, "\u7856": 8202, "1791": 8203, "816": 8204, "1636": 8205, "3h": 8206, "gsp": 8207, "811": 8208, "sky": 8209, "1632": 8210, "\u94ef": 8211, "christmas": 8212, "\u603f": 8213, "\u7b25": 8214, "matter": 8215, "574": 8216, "\u5659": 8217, "\u5028": 8218, "effect": 8219, "647": 8220, "779": 8221, "1803": 8222, "657": 8223, "sorry": 8224, "awards": 8225, "igbt": 8226, "pwm": 8227, "\u576d": 8228, "\u9185": 8229, "sos": 8230, "976": 8231, "592": 8232, "\u6ecf": 8233, "10min": 8234, "682": 8235, "cs3": 8236, "\u60bb": 8237, "did": 8238, "mater": 8239, "579": 8240, "\u8052": 8241, "1724": 8242, "feng": 8243, "low": 8244, "mhz": 8245, "836": 8246, "722": 8247, "\u67a5": 8248, "726": 8249, "\u663a": 8250, "bank": 8251, "memory": 8252, "rap": 8253, "975": 8254, "663": 8255, "ips": 8256, "\u9146": 8257, "2kg": 8258, "787": 8259, "\u7c1f": 8260, "\u7747": 8261, "\u8f6b": 8262, "\u6eb1": 8263, "\u9aa2": 8264, "\u6998": 8265, "642": 8266, "\u73fa": 8267, "\u8df9": 8268, "677": 8269, "series": 8270, "nlp": 8271, "raquo": 8272, "\u86b6": 8273, "stone": 8274, "1672": 8275, "1817": 8276, "1646": 8277, "827": 8278, "\u9a7a": 8279, "ko": 8280, "security": 8281, "perfect": 8282, "alexander": 8283, "746": 8284, "tt": 8285, "check": 8286, "804": 8287, "\u9967": 8288, "15mg": 8289, "sir": 8290, "moon": 8291, "doesn": 8292, "591": 8293, "inside": 8294, "tim": 8295, "672": 8296, "641": 8297, "\u567c": 8298, "\u5106": 8299, "1w": 8300, "\u6c1a": 8301, "646": 8302, "\u54e7": 8303, "1783": 8304, "\u65d2": 8305, "\u9e2c": 8306, "1648": 8307, "\u5925": 8308, "ev": 8309, "1688": 8310, "score": 8311, "standard": 8312, "\u73a6": 8313, "723": 8314, "\u8c85": 8315, "\u63c4": 8316, "\u6217": 8317, "fx": 8318, "938": 8319, "\u74a9": 8320, "fu": 8321, "1654": 8322, "\u5250": 8323, "010": 8324, "cpi": 8325, "\u57b4": 8326, "\u863c": 8327, "hz": 8328, "1521": 8329, "1067": 8330, "727": 8331, "ah": 8332, "lv": 8333, "916": 8334, "\u88d2": 8335, "639": 8336, "han": 8337, "\u8e85": 8338, "1715": 8339, "\u5533": 8340, "form": 8341, "second": 8342, "\u55d1": 8343, "\u8366": 8344, "674": 8345, "\u9708": 8346, "jin": 8347, "\u7f26": 8348, "\u556d": 8349, "pi": 8350, "1788": 8351, "rx": 8352, "\u9688": 8353, "gao": 8354, "sdk": 8355, "zheng": 8356, "\u60ab": 8357, "745": 8358, "href": 8359, "593": 8360, "ngo": 8361, "multi": 8362, "d3": 8363, "\u5f40": 8364, "637": 8365, "1276": 8366, "\u60ad": 8367, "found": 8368, "jis": 8369, "5700": 8370, "\u7113": 8371, "1234": 8372, "80cm": 8373, "\u78d4": 8374, "aim": 8375, "1778": 8376, "\u84ca": 8377, "act": 8378, "569": 8379, "xiao": 8380, "\u90fe": 8381, "717": 8382, "786": 8383, "return": 8384, "5min": 8385, "1582": 8386, "etf": 8387, "1590": 8388, "action": 8389, "1625": 8390, "sarah": 8391, "yourself": 8392, "\u67a7": 8393, "\u9e5a": 8394, "10kg": 8395, "80000": 8396, "\u691c": 8397, "775": 8398, "818": 8399, "stephen": 8400, "gui": 8401, "\u5c43": 8402, "644": 8403, "9500": 8404, "v6": 8405, "\u9991": 8406, "wlan": 8407, "hs": 8408, "2048": 8409, "area": 8410, "1616": 8411, "andrew": 8412, "8226": 8413, "6mg": 8414, "1567": 8415, "1763": 8416, "1470": 8417, "\u55f2": 8418, "pps": 8419, "\u94df": 8420, "rca": 8421, "pierre": 8422, "687": 8423, "null": 8424, "manager": 8425, "738": 8426, "sdh": 8427, "828": 8428, "\u85a4": 8429, "60g": 8430, "300mg": 8431, "jun": 8432, "1685": 8433, "favorite": 8434, "making": 8435, "playing": 8436, "summer": 8437, "754": 8438, "692": 8439, "\u6d94": 8440, "\u6a17": 8441, "664": 8442, "\u5ffe": 8443, "\u53ce": 8444, "\u7efa": 8445, "945": 8446, "h2s": 8447, "bis": 8448, "self": 8449, "300mm": 8450, "\u70ca": 8451, "opengl": 8452, "912": 8453, "acute": 8454, "\u87ab": 8455, "\u9ee9": 8456, "996": 8457, "magazine": 8458, "edward": 8459, "su": 8460, "elisa": 8461, "hdl": 8462, "cyp3a4": 8463, "\u97ab": 8464, "foundation": 8465, "alice": 8466, "ddr3": 8467, "915": 8468, "923": 8469, "tbs": 8470, "andy": 8471, "field": 8472, "date": 8473, "transactions": 8474, "limited": 8475, "during": 8476, "1126": 8477, "\u9ca0": 8478, "1057": 8479, "fan": 8480, "\u562d": 8481, "\u7f23": 8482, "845": 8483, "681": 8484, "rw": 8485, "mean": 8486, "1566": 8487, "become": 8488, "economic": 8489, "852": 8490, "johnny": 8491, "\u84ba": 8492, "unique": 8493, "\u9ed2": 8494, "tu": 8495, "boys": 8496, "1330": 8497, "885": 8498, "getting": 8499, "cj": 8500, "1072": 8501, "nh": 8502, "ne": 8503, "band": 8504, "cool": 8505, "724": 8506, "771": 8507, "\u9a98": 8508, "\u6c16": 8509, "content": 8510, "842": 8511, "\u955d": 8512, "\u4fc5": 8513, "\u8c2e": 8514, "te": 8515, "9600": 8516, "drive": 8517, "phenyl": 8518, "1275": 8519, "\u5c66": 8520, "cao": 8521, "menu": 8522, "823": 8523, "\u6441": 8524, "\u6c2a": 8525, "\u8627": 8526, "active": 8527, "sb": 8528, "appl": 8529, "988": 8530, "1622": 8531, "\u4f1d": 8532, "1725": 8533, "zero": 8534, "1008": 8535, "3kg": 8536, "\u8160": 8537, "\u53e1": 8538, "hit": 8539, "\u9c82": 8540, "mi": 8541, "0kg": 8542, "748": 8543, "lite": 8544, "enjoy": 8545, "local": 8546, "789": 8547, "\u7d9a": 8548, "1506": 8549, "seen": 8550, "s3": 8551, "1765": 8552, "european": 8553, "\u8ba3": 8554, "gold": 8555, "1279": 8556, "736": 8557, "965": 8558, "pl": 8559, "button": 8560, "\u8037": 8561, "1430": 8562, "986": 8563, "763": 8564, "toefl": 8565, "\u71ca": 8566, "\u9e37": 8567, "jimmy": 8568, "dota": 8569, "955": 8570, "861": 8571, "\u730a": 8572, "732": 8573, "xbox": 8574, "days": 8575, "dan": 8576, "673": 8577, "833": 8578, "\u56e1": 8579, "\u5d24": 8580, "4c": 8581, "economics": 8582, "23000": 8583, "agent": 8584, "html5": 8585, "points": 8586, "ryan": 8587, "shi": 8588, "\u782c": 8589, "\u6e5c": 8590, "reading": 8591, "918": 8592, "mine": 8593, "adc": 8594, "917": 8595, "1592": 8596, "1781": 8597, "\u7fda": 8598, "\u5cef": 8599, "909": 8600, "once": 8601, "exchange": 8602, "choose": 8603, "current": 8604, "symbian": 8605, "ts16949": 8606, "dave": 8607, "machine": 8608, "\u9c8e": 8609, "qos": 8610, "\u8556": 8611, "1785": 8612, "9m": 8613, "cia": 8614, "until": 8615, "cs4": 8616, "759": 8617, "f3": 8618, "903": 8619, "24000": 8620, "968": 8621, "8mg": 8622, "lewis": 8623, "\u9e48": 8624, "\u51fc": 8625, "snh48": 8626, "866": 8627, "\u6ceb": 8628, "\u8351": 8629, "\u9efb": 8630, "\u7242": 8631, "1722": 8632, "\u9123": 8633, "\u7bd1": 8634, "ho": 8635, "1110": 8636, "1784": 8637, "\u9aed": 8638, "\u966c": 8639, "\u5bd4": 8640, "dt": 8641, "shanghai": 8642, "\u75b4": 8643, "\u90bd": 8644, "987": 8645, "45000": 8646, "1042": 8647, "\u558f": 8648, "\u5f56": 8649, "sl": 8650, "saas": 8651, "814": 8652, "28000": 8653, "a5": 8654, "\u5f58": 8655, "\u8d5f": 8656, "819": 8657, "foxpro": 8658, "shit": 8659, "822": 8660, "\u76f9": 8661, "\u8bee": 8662, "\u9e2b": 8663, "per": 8664, "does": 8665, "150mm": 8666, "products": 8667, "camp": 8668, "select": 8669, "capital": 8670, "\u8315": 8671, "corporation": 8672, "26000": 8673, "\u94d6": 8674, "954": 8675, "dd": 8676, "\u95e9": 8677, "string": 8678, "page": 8679, "ba": 8680, "671": 8681, "\u8aad": 8682, "782": 8683, "\u911c": 8684, "\u6f08": 8685, "\u76cd": 8686, "dlp": 8687, "729": 8688, "\u752d": 8689, "\u610e": 8690, "outlook": 8691, "wii": 8692, "ue": 8693, "1787": 8694, "festival": 8695, "communication": 8696, "channel": 8697, "gary": 8698, "1755": 8699, "1774": 8700, "8600": 8701, "copy": 8702, "150mg": 8703, "\u9b43": 8704, "dragon": 8705, "1056": 8706, "c5": 8707, "\u7086": 8708, "track": 8709, "hdpe": 8710, "liang": 8711, "\u934a": 8712, "1800mhz": 8713, "1619": 8714, "\u86d0": 8715, "995": 8716, "21000": 8717, "\u859c": 8718, "win": 8719, "1394": 8720, "1786": 8721, "rain": 8722, "\u696f": 8723, "table": 8724, "\u9c80": 8725, "\u9021": 8726, "itu": 8727, "applications": 8728, "mmorpg": 8729, "\u561e": 8730, "s7": 8731, "696": 8732, "\u4f94": 8733, "1069": 8734, "\u89c7": 8735, "lbs": 8736, "0mg": 8737, "car": 8738, "wave": 8739, "\u7cf8": 8740, "\u8e2e": 8741, "\u72f7": 8742, "1552": 8743, "1627": 8744, "latest": 8745, "step": 8746, "886": 8747, "761": 8748, "\u83d8": 8749, "783": 8750, "\u5bf3": 8751, "esp": 8752, "\u6243": 8753, "865": 8754, "jazz": 8755, "k1": 8756, "fine": 8757, "child": 8758, "kind": 8759, "anna": 8760, "60mg": 8761, "997": 8762, "maria": 8763, "nk": 8764, "792": 8765, "raw": 8766, "late": 8767, "soa": 8768, "905": 8769, "cai": 8770, "ttl": 8771, "delphi": 8772, "prince": 8773, "1340": 8774, "\u798a": 8775, "synthesis": 8776, "\u5591": 8777, "rmb": 8778, "miller": 8779, "patrick": 8780, "933": 8781, "running": 8782, "50kg": 8783, "1398": 8784, "ast": 8785, "752": 8786, "location": 8787, "dead": 8788, "\u584d": 8789, "chateau": 8790, "allows": 8791, "forget": 8792, "tg": 8793, "921": 8794, "\u681d": 8795, "5w": 8796, "kiss": 8797, "1690": 8798, "691": 8799, "arthur": 8800, "\u74ff": 8801, "index": 8802, "csa": 8803, "rmvb": 8804, "msc": 8805, "\u5ee8": 8806, "cas": 8807, "known": 8808, "h1": 8809, "tj": 8810, "j2ee": 8811, "asian": 8812, "841": 8813, "1227": 8814, "g20": 8815, "cross": 8816, "cos": 8817, "ntilde": 8818, "719": 8819, "\u8c98": 8820, "dnf": 8821, "california": 8822, "france": 8823, "modern": 8824, "pacific": 8825, "769": 8826, "1066": 8827, "turbo": 8828, "753": 8829, "795": 8830, "669": 8831, "1764": 8832, "868": 8833, "\u9995": 8834, "\u50f0": 8835, "union": 8836, "1772": 8837, "2150": 8838, "1063": 8839, "\u54cf": 8840, "double": 8841, "fight": 8842, "858": 8843, "math": 8844, "bo": 8845, "\u7477": 8846, "men": 8847, "sea": 8848, "6700": 8849, "sem": 8850, "697": 8851, "\u758e": 8852, "882": 8853, "note": 8854, "qi": 8855, "uml": 8856, "902": 8857, "1637": 8858, "tp": 8859, "1290": 8860, "1085": 8861, "776": 8862, "\u8763": 8863, "\u6035": 8864, "\u9603": 8865, "dps": 8866, "1687": 8867, "\u5f22": 8868, "\u9572": 8869, "hcl": 8870, "al2o3": 8871, "js": 8872, "auto": 8873, "\u8785": 8874, "1683": 8875, "v5": 8876, "culture": 8877, "935": 8878, "\u5416": 8879, "edge": 8880, "\u78b2": 8881, "voice": 8882, "1007": 8883, "bridge": 8884, "855": 8885, "008": 8886, "\u593c": 8887, "\u830c": 8888, "battle": 8889, "\u55ec": 8890, "\u977a": 8891, "dp": 8892, "ae": 8893, "1090": 8894, "895": 8895, "1012": 8896, "1162": 8897, "bi": 8898, "778": 8899, "\u9ac0": 8900, "1575": 8901, "pcm": 8902, "15min": 8903, "1598": 8904, "\u94ca": 8905, "secret": 8906, "739": 8907, "200m": 8908, "6h": 8909, "matt": 8910, "\u8c21": 8911, "card": 8912, "mic": 8913, "\u7654": 8914, "ecu": 8915, "16mm": 8916, "984": 8917, "\u9560": 8918, "5km": 8919, "dhcp": 8920, "1753": 8921, "\u5dfb": 8922, "\u79fe": 8923, "living": 8924, "gn": 8925, "1643": 8926, "framework": 8927, "\u83ea": 8928, "679": 8929, "\u8d5c": 8930, "1782": 8931, "four": 8932, "\u94c8": 8933, "1777": 8934, "british": 8935, "shell": 8936, "santa": 8937, "yuan": 8938, "20ma": 8939, "fly": 8940, "927": 8941, "qu": 8942, "nds": 8943, "qaq": 8944, "bar": 8945, "\u9ad9": 8946, "arp": 8947, "1667": 8948, "1773": 8949, "693": 8950, "main": 8951, "\u9cb3": 8952, "1510": 8953, "1002": 8954, "2022": 8955, "cdna": 8956, "box": 8957, "\u73f0": 8958, "100km": 8959, "004": 8960, "\u754b": 8961, "bring": 8962, "\u6cc5": 8963, "959": 8964, "hpv": 8965, "makes": 8966, "cmv": 8967, "\u9c85": 8968, "tmd": 8969, "1762": 8970, "854": 8971, "\u6cda": 8972, "ghost": 8973, "short": 8974, "mcu": 8975, "1768": 8976, "cat": 8977, "963": 8978, "1757": 8979, "1206": 8980, "1207": 8981, "puzzle": 8982, "793": 8983, "central": 8984, "859": 8985, "\u98cf": 8986, "walter": 8987, "60hz": 8988, "anderson": 8989, "1727": 8990, "thought": 8991, "\u5c4d": 8992, "\u4ee8": 8993, "864": 8994, "molecular": 8995, "856": 8996, "dong": 8997, "financial": 8998, "1728": 8999, "surface": 9000, "g2": 9001, "mf": 9002, "\u845a": 9003, "\u53fb": 9004, "solidworks": 9005, "res": 9006, "speed": 9007, "1195": 9008, "\u54bb": 9009, "ascii": 9010, "1404": 9011, "784": 9012, "jeff": 9013, "\u8869": 9014, "1371": 9015, "land": 9016, "biology": 9017, "1655": 9018, "\u90c4": 9019, "otc": 9020, "sio": 9021, "1310": 9022, "1605": 9023, "\u8e69": 9024, "mems": 9025, "1618": 9026, "m16": 9027, "complete": 9028, "industrial": 9029, "acs": 9030, "1603": 9031, "kids": 9032, "tour": 9033, "u2": 9034, "allen": 9035, "1756": 9036, "743": 9037, "\u5b16": 9038, "\u8e3d": 9039, "davis": 9040, "\u67fd": 9041, "\u97a8": 9042, "65279": 9043, "7600": 9044, "30ml": 9045, "957": 9046, "0l": 9047, "734": 9048, "p450": 9049, "956": 9050, "ir": 9051, "\u9eb4": 9052, "500mm": 9053, "casio": 9054, "1038": 9055, "roger": 9056, "library": 9057, "015": 9058, "1652": 9059, "\u8599": 9060, "within": 9061, "hands": 9062, "874": 9063, "ntsc": 9064, "\u9487": 9065, "whole": 9066, "jq": 9067, "\u6c35": 9068, "\u5786": 9069, "post": 9070, "sweet": 9071, "wall": 9072, "898": 9073, "cs5": 9074, "feo": 9075, "9800": 9076, "cms": 9077, "1390": 9078, "since": 9079, "medical": 9080, "\u729f": 9081, "1492": 9082, "\u7f4d": 9083, "stand": 9084, "justin": 9085, "lake": 9086, "i5": 9087, "1729": 9088, "bell": 9089, "ruby": 9090, "important": 9091, "bout": 9092, "images": 9093, "lab": 9094, "962": 9095, "1759": 9096, "rj": 9097, "cache": 9098, "nb": 9099, "production": 9100, "\u7d4c": 9101, "807": 9102, "1771": 9103, "doing": 9104, "\u7c9c": 9105, "tnf": 9106, "ws": 9107, "guide": 9108, "bim": 9109, "events": 9110, "1626": 9111, "1016": 9112, "\u711c": 9113, "performance": 9114, "ra": 9115, "zl": 9116, "\u7240": 9117, "1568": 9118, "1647": 9119, "\u57dd": 9120, "\u6d27": 9121, "1615": 9122, "shift": 9123, "788": 9124, "shen": 9125, "1588": 9126, "60mm": 9127, "\u89a7": 9128, "tuv": 9129, "1673": 9130, "electronic": 9131, "mos": 9132, "\u84e3": 9133, "8kg": 9134, "862": 9135, "echo": 9136, "1572": 9137, "section": 9138, "981": 9139, "\u752f": 9140, "sg": 9141, "1664": 9142, "understand": 9143, "hsk": 9144, "delta": 9145, "x86": 9146, "eap": 9147, "block": 9148, "1578": 9149, "er": 9150, "xl": 9151, "\u8490": 9152, "\u9990": 9153, "nox": 9154, "\u7551": 9155, "ib": 9156, "trying": 9157, "ann": 9158, "1635": 9159, "apache": 9160, "naoh": 9161, "12345": 9162, "\u7f11": 9163, "\u793d": 9164, "1624": 9165, "694": 9166, "\u778b": 9167, "1601": 9168, "\u6d4d": 9169, "983": 9170, "773": 9171, "1000m": 9172, "someone": 9173, "15kg": 9174, "25m": 9175, "847": 9176, "\u88a2": 9177, "\u6855": 9178, "1037": 9179, "jerry": 9180, "843": 9181, "picture": 9182, "919": 9183, "e3": 9184, "printf": 9185, "3gs": 9186, "marie": 9187, "853": 9188, "rj45": 9189, "\u4fa9": 9190, "913": 9191, "896": 9192, "lose": 9193, "unicode": 9194, "100cm": 9195, "1711": 9196, "charlie": 9197, "\u8a48": 9198, "\u6238": 9199, "1689": 9200, "room": 9201, "\u70dd": 9202, "beat": 9203, "\u580c": 9204, "\u4f0b": 9205, "hplc": 9206, "9300": 9207, "110kv": 9208, "nfc": 9209, "\u502c": 9210, "764": 9211, "iis": 9212, "\u572f": 9213, "solo": 9214, "\u7887": 9215, "ef": 9216, "round": 9217, "chang": 9218, "1366": 9219, "781": 9220, "1585": 9221, "982": 9222, "socket": 9223, "df": 9224, "892": 9225, "1536": 9226, "831": 9227, "ren": 9228, "6kg": 9229, "4900": 9230, "\u7eb0": 9231, "object": 9232, "forever": 9233, "832": 9234, "951": 9235, "qr": 9236, "1023": 9237, "8800": 9238, "4kg": 9239, "\u78fe": 9240, "\u6cd4": 9241, "1131": 9242, "\u7eae": 9243, "\u84c1": 9244, "971": 9245, "building": 9246, "1021": 9247, "\u94d7": 9248, "939": 9249, "\u5f07": 9250, "\u6332": 9251, "crystal": 9252, "\u8249": 9253, "smtp": 9254, "\u9c6c": 9255, "cims": 9256, "fang": 9257, "1265": 9258, "trans": 9259, "pan": 9260, "1745": 9261, "1604": 9262, "\u6cfa": 9263, "\u6a5b": 9264, "817": 9265, "796": 9266, "\u88b4": 9267, "cosplay": 9268, "1154": 9269, "1189": 9270, "749": 9271, "794": 9272, "1068": 9273, "881": 9274, "hc": 9275, "hope": 9276, "1410": 9277, "couldn": 9278, "1638": 9279, "992": 9280, "along": 9281, "age": 9282, "250mg": 9283, "clear": 9284, "aps": 9285, "1631": 9286, "1011": 9287, "provides": 9288, "1123": 9289, "1701": 9290, "36000": 9291, "csf": 9292, "\u97ea": 9293, "n1": 9294, "works": 9295, "\u7c53": 9296, "967": 9297, "ptc": 9298, "\u8d36": 9299, "1111": 9300, "1651": 9301, "\u68f0": 9302, "1726": 9303, "sar": 9304, "1666": 9305, "qvga": 9306, "hf": 9307, "coreldraw": 9308, "possible": 9309, "\u8db5": 9310, "1629": 9311, "943": 9312, "marc": 9313, "luo": 9314, "\u6a28": 9315, "848": 9316, "county": 9317, "944": 9318, "tb": 9319, "dts": 9320, "junior": 9321, "vba": 9322, "lot": 9323, "\u5095": 9324, "\u7395": 9325, "\u6bce": 9326, "direct": 9327, "839": 9328, "\u7e78": 9329, "2350": 9330, "774": 9331, "\u52b5": 9332, "fsh": 9333, "wmv": 9334, "\u9567": 9335, "\u79eb": 9336, "1094": 9337, "osi": 9338, "1602": 9339, "\u90b6": 9340, "\u731e": 9341, "dior": 9342, "1766": 9343, "1623": 9344, "\u5edb": 9345, "\u680c": 9346, "\u94b2": 9347, "\u9566": 9348, "1607": 9349, "psa": 9350, "spss": 9351, "xy": 9352, "1769": 9353, "cells": 9354, "1465": 9355, "1577": 9356, "gon": 9357, "send": 9358, "vision": 9359, "thinking": 9360, "imf": 9361, "\u560f": 9362, "carl": 9363, "\u8770": 9364, "32000": 9365, "bay": 9366, "928": 9367, "is09001": 9368, "\u954f": 9369, "20kg": 9370, "\u6de0": 9371, "imax": 9372, "novel": 9373, "qt": 9374, "1684": 9375, "\u8347": 9376, "\u9004": 9377, "au": 9378, "author": 9379, "mod": 9380, "80mm": 9381, "1748": 9382, "849": 9383, "1612": 9384, "yet": 9385, "\u5605": 9386, "929": 9387, "6l": 9388, "karl": 9389, "6100": 9390, "students": 9391, "gmat": 9392, "myself": 9393, "kate": 9394, "jpg": 9395, "979": 9396, "1752": 9397, "829": 9398, "2450": 9399, "914": 9400, "876": 9401, "\u7955": 9402, "\u7460": 9403, "48h": 9404, "mpv": 9405, "1734": 9406, "mis": 9407, "1565": 9408, "walk": 9409, "941": 9410, "1075": 9411, "1235": 9412, "natural": 9413, "k2": 9414, "977": 9415, "\u709d": 9416, "\u676a": 9417, "4050": 9418, "1669": 9419, "p3": 9420, "1004": 9421, "fn": 9422, "\u57f4": 9423, "1555": 9424, "vmware": 9425, "chloride": 9426, "942": 9427, "steven": 9428, "1078": 9429, "\u736c": 9430, "966": 9431, "1135": 9432, "country": 9433, "947": 9434, "\u67e2": 9435, "\u6371": 9436, "\u8de3": 9437, "887": 9438, "\u6d91": 9439, "75mm": 9440, "1278": 9441, "1583": 9442, "western": 9443, "watch": 9444, "\u6483": 9445, "\u4f22": 9446, "\u5820": 9447, "1045": 9448, "12m": 9449, "museum": 9450, "1215": 9451, "document": 9452, "marketing": 9453, "952": 9454, "\u537d": 9455, "\u7301": 9456, "usb3": 9457, "906": 9458, "\u53a3": 9459, "physical": 9460, "\u8f8f": 9461, "1668": 9462, "\u65c6": 9463, "agp": 9464, "\u8306": 9465, "1488": 9466, "pg": 9467, "\u4e5c": 9468, "deep": 9469, "1082": 9470, "961": 9471, "\u8e2f": 9472, "1526": 9473, "#": 9474, "[": 9475, "yam": 9476, "lofter": 9477, "##s": 9478, "##0": 9479, "##a": 9480, "##2": 9481, "##1": 9482, "##3": 9483, "##e": 9484, "##8": 9485, "##5": 9486, "##6": 9487, "##4": 9488, "##9": 9489, "##7": 9490, "##t": 9491, "##o": 9492, "##d": 9493, "##i": 9494, "##n": 9495, "##m": 9496, "##c": 9497, "##l": 9498, "##y": 9499, "##r": 9500, "##g": 9501, "##p": 9502, "##f": 9503, "pixnet": 9504, "cookies": 9505, "tripadvisor": 9506, "##er": 9507, "##k": 9508, "##h": 9509, "##b": 9510, "##x": 9511, "##u": 9512, "##w": 9513, "##ing": 9514, "ctrip": 9515, "##on": 9516, "##v": 9517, "llc": 9518, "##an": 9519, "##z": 9520, "blogthis": 9521, "##le": 9522, "##in": 9523, "##mm": 9524, "##00": 9525, "ig": 9526, "##ng": 9527, "##us": 9528, "##te": 9529, "##ed": 9530, "ncc": 9531, "blog": 9532, "##10": 9533, "##al": 9534, "##ic": 9535, "##ia": 9536, "##q": 9537, "##ce": 9538, "##en": 9539, "##is": 9540, "##ra": 9541, "##es": 9542, "##j": 9543, "##cm": 9544, "tw": 9545, "##ne": 9546, "##re": 9547, "##tion": 9548, "pony": 9549, "##2017": 9550, "##ch": 9551, "##or": 9552, "##na": 9553, "cafe": 9554, "pinterest": 9555, "pixstyleme3c": 9556, "##ta": 9557, "##2016": 9558, "##ll": 9559, "##20": 9560, "##ie": 9561, "##ma": 9562, "##17": 9563, "##ion": 9564, "##th": 9565, "##st": 9566, "##se": 9567, "##et": 9568, "##ck": 9569, "##ly": 9570, "web885": 9571, "##ge": 9572, "xd": 9573, "##ry": 9574, "##11": 9575, "0fork": 9576, "##12": 9577, "##ter": 9578, "##ar": 9579, "##la": 9580, "##os": 9581, "##30": 9582, "##el": 9583, "##50": 9584, "##ml": 9585, "tue": 9586, "posted": 9587, "##at": 9588, "##man": 9589, "##15": 9590, "ago": 9591, "##it": 9592, "##me": 9593, "##de": 9594, "##nt": 9595, "##mb": 9596, "##16": 9597, "##ve": 9598, "##da": 9599, "##ps": 9600, "##to": 9601, "https": 9602, "momo": 9603, "##son": 9604, "##ke": 9605, "##80": 9606, "ebd": 9607, "apk": 9608, "##88": 9609, "##um": 9610, "wiki": 9611, "brake": 9612, "mon": 9613, "po": 9614, "june": 9615, "##ss": 9616, "fb": 9617, "##as": 9618, "leonardo": 9619, "safari": 9620, "##60": 9621, "wed": 9622, "win7": 9623, "kiehl": 9624, "##co": 9625, "##go": 9626, "vfm": 9627, "kanye": 9628, "##90": 9629, "##2015": 9630, "##id": 9631, "##ey": 9632, "##sa": 9633, "##ro": 9634, "##am": 9635, "##no": 9636, "thu": 9637, "fri": 9638, "##sh": 9639, "##ki": 9640, "comments": 9641, "##pe": 9642, "##ine": 9643, "uber": 9644, "##mi": 9645, "##ton": 9646, "wordpress": 9647, "##ment": 9648, "win10": 9649, "##ld": 9650, "##li": 9651, "gmail": 9652, "##rs": 9653, "##ri": 9654, "##rd": 9655, "##21": 9656, "##io": 9657, "##99": 9658, "paypal": 9659, "policy": 9660, "##40": 9661, "##ty": 9662, "##18": 9663, "##01": 9664, "##ba": 9665, "taiwan": 9666, "##ga": 9667, "privacy": 9668, "agoda": 9669, "##13": 9670, "##ny": 9671, "##24": 9672, "##22": 9673, "##by": 9674, "##ur": 9675, "##hz": 9676, "##ang": 9677, "cookie": 9678, "netscape": 9679, "##ka": 9680, "##ad": 9681, "nike": 9682, "survey": 9683, "##016": 9684, "wikia": 9685, "##32": 9686, "##017": 9687, "cbc": 9688, "##tor": 9689, "##kg": 9690, "##rt": 9691, "##14": 9692, "campaign": 9693, "##ct": 9694, "##ts": 9695, "##ns": 9696, "##ao": 9697, "##nd": 9698, "##70": 9699, "##ya": 9700, "##il": 9701, "##25": 9702, "0020": 9703, "897": 9704, "##23": 9705, "hotels": 9706, "##ian": 9707, "6606": 9708, "##ers": 9709, "##26": 9710, "##day": 9711, "##ay": 9712, "##line": 9713, "##be": 9714, "talk2yam": 9715, "yamservice": 9716, "coco": 9717, "##dy": 9718, "##ies": 9719, "##ha": 9720, "instagram": 9721, "##ot": 9722, "##va": 9723, "##mo": 9724, "##land": 9725, "ltxsw": 9726, "##ation": 9727, "##pa": 9728, "##ol": 9729, "tag": 9730, "##ue": 9731, "##31": 9732, "oppo": 9733, "##ca": 9734, "##om": 9735, "chrome": 9736, "##ure": 9737, "lol": 9738, "##19": 9739, "##bo": 9740, "##100": 9741, "##way": 9742, "##ko": 9743, "##do": 9744, "##un": 9745, "##ni": 9746, "herme": 9747, "##28": 9748, "##up": 9749, "##06": 9750, "##ds": 9751, "admin": 9752, "##48": 9753, "##015": 9754, "##35": 9755, "##ee": 9756, "tpp": 9757, "##ive": 9758, "##cc": 9759, "##ble": 9760, "##ity": 9761, "##ex": 9762, "##ler": 9763, "##ap": 9764, "##book": 9765, "##ice": 9766, "##km": 9767, "##mg": 9768, "##ms": 9769, "ebay": 9770, "##29": 9771, "ubuntu": 9772, "##cy": 9773, "##view": 9774, "##lo": 9775, "##oo": 9776, "##02": 9777, "step1": 9778, "july": 9779, "##net": 9780, "##ls": 9781, "##ii": 9782, "##05": 9783, "##33": 9784, "step2": 9785, "ios9": 9786, "##box": 9787, "##ley": 9788, "samsung": 9789, "pokemon": 9790, "##ent": 9791, "##les": 9792, "s8": 9793, "atom": 9794, "##said": 9795, "##55": 9796, "##2014": 9797, "##66": 9798, "adidas": 9799, "amazon": 9800, "##ber": 9801, "##ner": 9802, "visa": 9803, "##77": 9804, "##der": 9805, "connectivity": 9806, "##hi": 9807, "firefox": 9808, "skip": 9809, "##27": 9810, "##ir": 9811, "##61": 9812, "##ai": 9813, "##ver": 9814, "cafe2017": 9815, "##ron": 9816, "##ster": 9817, "##sk": 9818, "##ft": 9819, "longchamp": 9820, "ssd": 9821, "##ti": 9822, "reply": 9823, "##my": 9824, "apr": 9825, "##ker": 9826, "source": 9827, "##one": 9828, "##2013": 9829, "##ow": 9830, "goods": 9831, "##lin": 9832, "##ip": 9833, "##ics": 9834, "##45": 9835, "##03": 9836, "##ff": 9837, "##47": 9838, "ganji": 9839, "##nce": 9840, "##per": 9841, "faq": 9842, "comment": 9843, "##ock": 9844, "##bs": 9845, "##ah": 9846, "##lv": 9847, "##mp": 9848, "##000": 9849, "melody": 9850, "17life": 9851, "##au": 9852, "##71": 9853, "##04": 9854, "##95": 9855, "##age": 9856, "tips": 9857, "##68": 9858, "##ting": 9859, "##ung": 9860, "wonderland": 9861, "##ction": 9862, "mar": 9863, "article": 9864, "##db": 9865, "##07": 9866, "##ore": 9867, "##op": 9868, "##78": 9869, "##38": 9870, "##ong": 9871, "##73": 9872, "##08": 9873, "##ica": 9874, "##36": 9875, "##wa": 9876, "##64": 9877, "homemesh": 9878, "##85": 9879, "##tv": 9880, "##di": 9881, "macbook": 9882, "##ier": 9883, "##si": 9884, "##75": 9885, "##ok": 9886, "goris": 9887, "lock": 9888, "##ut": 9889, "carol": 9890, "##vi": 9891, "##ac": 9892, "anti": 9893, "jan": 9894, "tags": 9895, "##98": 9896, "##51": 9897, "august": 9898, "##86": 9899, "##fs": 9900, "##sion": 9901, "jordan": 9902, "##tt": 9903, "##lt": 9904, "##42": 9905, "##bc": 9906, "vivi": 9907, "##rry": 9908, "##ted": 9909, "##rn": 9910, "usd": 9911, "##t00": 9912, "##58": 9913, "##09": 9914, "##34": 9915, "goo": 9916, "##ui": 9917, "##ary": 9918, "item": 9919, "##pm": 9920, "##41": 9921, "##za": 9922, "##2012": 9923, "blogabstract": 9924, "##ger": 9925, "##62": 9926, "##44": 9927, "gr2": 9928, "asus": 9929, "cindy": 9930, "##hd": 9931, "esc": 9932, "##od": 9933, "booking": 9934, "##53": 9935, "fed": 9936, "##81": 9937, "##ina": 9938, "chan": 9939, "distribution": 9940, "steam": 9941, "pk10": 9942, "##ix": 9943, "##65": 9944, "##91": 9945, "dec": 9946, "##ana": 9947, "icecat": 9948, "00z": 9949, "##46": 9950, "##ji": 9951, "##ard": 9952, "oct": 9953, "##ain": 9954, "jp": 9955, "##ze": 9956, "##bi": 9957, "cio": 9958, "##56": 9959, "h5": 9960, "##39": 9961, "##port": 9962, "curve": 9963, "##nm": 9964, "##dia": 9965, "utc": 9966, "12345678910": 9967, "##52": 9968, "chanel": 9969, "##and": 9970, "##im": 9971, "##63": 9972, "vera": 9973, "vivo": 9974, "##ei": 9975, "2756": 9976, "##69": 9977, "msci": 9978, "##po": 9979, "##89": 9980, "##bit": 9981, "##out": 9982, "##zz": 9983, "##97": 9984, "##67": 9985, "opec": 9986, "##96": 9987, "##tes": 9988, "##ast": 9989, "##ling": 9990, "##ory": 9991, "##ical": 9992, "kitty": 9993, "##43": 9994, "step3": 9995, "##cn": 9996, "win8": 9997, "iphone7": 9998, "beauty": 9999, "##87": 10000, "dollars": 10001, "##ys": 10002, "##oc": 10003, "pay": 10004, "##2011": 10005, "##lly": 10006, "##ks": 10007, "download": 10008, "sep": 10009, "##board": 10010, "##37": 10011, "##lan": 10012, "winrar": 10013, "##que": 10014, "##ua": 10015, "##com": 10016, "ettoday": 10017, "##54": 10018, "##ren": 10019, "##via": 10020, "##72": 10021, "##79": 10022, "##tch": 10023, "##49": 10024, "##ial": 10025, "##nn": 10026, "step4": 10027, "2765": 10028, "gov": 10029, "##xx": 10030, "mandy": 10031, "##ser": 10032, "copyright": 10033, "fashion": 10034, "##ist": 10035, "##art": 10036, "##lm": 10037, "##ek": 10038, "##ning": 10039, "##if": 10040, "##ite": 10041, "iot": 10042, "##84": 10043, "##2010": 10044, "##ku": 10045, "october": 10046, "##ux": 10047, "trump": 10048, "##hs": 10049, "##ide": 10050, "##ins": 10051, "april": 10052, "##ight": 10053, "##83": 10054, "protected": 10055, "##fe": 10056, "##ho": 10057, "ofo": 10058, "gomaji": 10059, "march": 10060, "##lla": 10061, "##pp": 10062, "##ec": 10063, "6s": 10064, "720p": 10065, "##rm": 10066, "##ham": 10067, "##92": 10068, "fandom": 10069, "##ell": 10070, "info": 10071, "##82": 10072, "sina": 10073, "4066": 10074, "##able": 10075, "##ctor": 10076, "rights": 10077, "jul": 10078, "##76": 10079, "mall": 10080, "##59": 10081, "donald": 10082, "sodu": 10083, "##light": 10084, "reserved": 10085, "htm": 10086, "##han": 10087, "##57": 10088, "##ise": 10089, "##tions": 10090, "##shi": 10091, "doc": 10092, "055": 10093, "##ram": 10094, "shopping": 10095, "aug": 10096, "##pi": 10097, "##well": 10098, "wam": 10099, "##hu": 10100, "##gb": 10101, "##93": 10102, "mix": 10103, "##ef": 10104, "##uan": 10105, "bwl": 10106, "##plus": 10107, "##res": 10108, "##ess": 10109, "tea": 10110, "hktvmall": 10111, "##ate": 10112, "##ese": 10113, "feb": 10114, "inn": 10115, "nov": 10116, "##ci": 10117, "pass": 10118, "##bet": 10119, "##nk": 10120, "coffee": 10121, "airbnb": 10122, "##ute": 10123, "woshipm": 10124, "skype": 10125, "##fc": 10126, "##www": 10127, "##94": 10128, "##ght": 10129, "##gs": 10130, "##ile": 10131, "##wood": 10132, "##uo": 10133, "icon": 10134, "##em": 10135, "says": 10136, "##king": 10137, "##tive": 10138, "blogger": 10139, "##74": 10140, "##ox": 10141, "##zy": 10142, "##red": 10143, "##ium": 10144, "##lf": 10145, "nokia": 10146, "claire": 10147, "##ding": 10148, "november": 10149, "lohas": 10150, "##500": 10151, "##tic": 10152, "##cs": 10153, "##che": 10154, "##ire": 10155, "##gy": 10156, "##ult": 10157, "january": 10158, "ptt": 10159, "##fa": 10160, "##mer": 10161, "pchome": 10162, "udn": 10163, "##time": 10164, "##tte": 10165, "garden": 10166, "eleven": 10167, "309b": 10168, "bat": 10169, "##123": 10170, "##tra": 10171, "kindle": 10172, "##ern": 10173, "xperia": 10174, "ces": 10175, "travel": 10176, "##ous": 10177, "##int": 10178, "edu": 10179, "cho": 10180, "##car": 10181, "##our": 10182, "##ant": 10183, "rends": 10184, "##jo": 10185, "mastercard": 10186, "##2000": 10187, "kb": 10188, "##min": 10189, "##ino": 10190, "##ris": 10191, "##ud": 10192, "##set": 10193, "##her": 10194, "##ou": 10195, "taipei": 10196, "##fi": 10197, "##ill": 10198, "aphojoy": 10199, "december": 10200, "meiki": 10201, "##ick": 10202, "tweet": 10203, "##av": 10204, "iphone6": 10205, "##dd": 10206, "views": 10207, "##mark": 10208, "##ash": 10209, "##ome": 10210, "koreanmall": 10211, "##ak": 10212, "q2": 10213, "##200": 10214, "mlb": 10215, "##lle": 10216, "##watch": 10217, "##und": 10218, "##tal": 10219, "##less": 10220, "4399": 10221, "##rl": 10222, "update": 10223, "shop": 10224, "##mhz": 10225, "##house": 10226, "##key": 10227, "##001": 10228, "##hy": 10229, "##web": 10230, "##2009": 10231, "##gg": 10232, "##wan": 10233, "##val": 10234, "2021": 10235, "##ons": 10236, "doi": 10237, "trivago": 10238, "overdope": 10239, "##ance": 10240, "573032185": 10241, "wx17house": 10242, "##so": 10243, "audi": 10244, "##he": 10245, "##rp": 10246, "##ake": 10247, "beach": 10248, "cfa": 10249, "ps4": 10250, "##800": 10251, "##link": 10252, "##hp": 10253, "ferragamo": 10254, "##eng": 10255, "##style": 10256, "##gi": 10257, "i7": 10258, "##ray": 10259, "##max": 10260, "##pc": 10261, "september": 10262, "##ace": 10263, "vps": 10264, "february": 10265, "pantos": 10266, "wp": 10267, "lisa": 10268, "jquery": 10269, "offer": 10270, "##berg": 10271, "##news": 10272, "fks": 10273, "##all": 10274, "##rus": 10275, "##888": 10276, "##works": 10277, "blogtitle": 10278, "loftpermalink": 10279, "ling": 10280, "##ja": 10281, "outlet": 10282, "##ea": 10283, "##top": 10284, "##ness": 10285, "salvatore": 10286, "##lu": 10287, "swift": 10288, "##ul": 10289, "week": 10290, "##ean": 10291, "##300": 10292, "##gle": 10293, "##back": 10294, "powered": 10295, "##tan": 10296, "##nes": 10297, "canon": 10298, "##zi": 10299, "##las": 10300, "##oe": 10301, "##sd": 10302, "##bot": 10303, "##world": 10304, "##zo": 10305, "top100": 10306, "pmi": 10307, "##vr": 10308, "ball": 10309, "vogue": 10310, "ofweek": 10311, "##list": 10312, "##ort": 10313, "##lon": 10314, "##tc": 10315, "##of": 10316, "##bus": 10317, "##gen": 10318, "nas": 10319, "##lie": 10320, "##ria": 10321, "##coin": 10322, "##bt": 10323, "nata": 10324, "vive": 10325, "cup": 10326, "##ook": 10327, "##sy": 10328, "msg": 10329, "3ce": 10330, "##word": 10331, "ebooks": 10332, "r8": 10333, "nice": 10334, "months": 10335, "rewards": 10336, "##ther": 10337, "0800": 10338, "##xi": 10339, "##sc": 10340, "gg": 10341, "blogfp": 10342, "daily": 10343, "##bb": 10344, "##tar": 10345, "##ky": 10346, "anthony": 10347, "##yo": 10348, "##ara": 10349, "##aa": 10350, "##rc": 10351, "##tz": 10352, "##ston": 10353, "gear": 10354, "##eo": 10355, "##ade": 10356, "##win": 10357, "##ura": 10358, "##den": 10359, "##ita": 10360, "##sm": 10361, "png": 10362, "rakuten": 10363, "whatsapp": 10364, "##use": 10365, "pad": 10366, "gucci": 10367, "##ode": 10368, "##fo": 10369, "chicago": 10370, "##hone": 10371, "io": 10372, "sogo": 10373, "be2": 10374, "##ology": 10375, "cloud": 10376, "##con": 10377, "##ford": 10378, "##joy": 10379, "##kb": 10380, "##rade": 10381, "##ach": 10382, "docker": 10383, "##ful": 10384, "##ase": 10385, "ford": 10386, "##star": 10387, "edited": 10388, "##are": 10389, "##mc": 10390, "siri": 10391, "##ella": 10392, "bloomberg": 10393, "##read": 10394, "pizza": 10395, "##ison": 10396, "##vm": 10397, "node": 10398, "18k": 10399, "##play": 10400, "##cer": 10401, "##yu": 10402, "##ings": 10403, "asr": 10404, "##lia": 10405, "step5": 10406, "##cd": 10407, "pixstyleme": 10408, "##600": 10409, "##tus": 10410, "tokyo": 10411, "##rial": 10412, "##life": 10413, "##ae": 10414, "tcs": 10415, "##rk": 10416, "##wang": 10417, "##sp": 10418, "##ving": 10419, "premium": 10420, "netflix": 10421, "##lton": 10422, "##ple": 10423, "##cal": 10424, "021": 10425, "##sen": 10426, "##ville": 10427, "nexus": 10428, "##ius": 10429, "##mah": 10430, "tila": 10431, "##tin": 10432, "resort": 10433, "##ws": 10434, "p10": 10435, "report": 10436, "##360": 10437, "##ru": 10438, "bus": 10439, "vans": 10440, "##est": 10441, "links": 10442, "rebecca": 10443, "##dm": 10444, "azure": 10445, "##365": 10446, "##mon": 10447, "moto": 10448, "##eam": 10449, "blogspot": 10450, "##ments": 10451, "##ik": 10452, "##kw": 10453, "##bin": 10454, "##ata": 10455, "##vin": 10456, "##tu": 10457, "##ula": 10458, "station": 10459, "##ature": 10460, "files": 10461, "zara": 10462, "hdr": 10463, "top10": 10464, "s6": 10465, "marriott": 10466, "avira": 10467, "tab": 10468, "##ran": 10469, "##home": 10470, "oculus": 10471, "##ral": 10472, "rosie": 10473, "##force": 10474, "##ini": 10475, "ice": 10476, "##bert": 10477, "##nder": 10478, "##mber": 10479, "plurk": 10480, "##sis": 10481, "00kg": 10482, "##ence": 10483, "##nc": 10484, "##name": 10485, "log": 10486, "ikea": 10487, "malaysia": 10488, "##ncy": 10489, "##nie": 10490, "##ye": 10491, "##oid": 10492, "##chi": 10493, "xuehai": 10494, "##1000": 10495, "##orm": 10496, "##rf": 10497, "##ware": 10498, "##pro": 10499, "##era": 10500, "##ub": 10501, "##2008": 10502, "8891": 10503, "scp": 10504, "##zen": 10505, "qvod": 10506, "jcb": 10507, "##hr": 10508, "weibo": 10509, "##row": 10510, "##ish": 10511, "github": 10512, "mate": 10513, "##lot": 10514, "##ane": 10515, "##tina": 10516, "ed2k": 10517, "##vel": 10518, "##900": 10519, "final": 10520, "ns": 10521, "bytes": 10522, "##ene": 10523, "##cker": 10524, "##2007": 10525, "##px": 10526, "topapp": 10527, "helpapp": 10528, "14k": 10529, "g4g": 10530, "ldquo": 10531, "##fork": 10532, "##gan": 10533, "##zon": 10534, "##qq": 10535, "##google": 10536, "##ism": 10537, "##zer": 10538, "toyota": 10539, "category": 10540, "##labels": 10541, "restaurant": 10542, "##md": 10543, "posts": 10544, "##ico": 10545, "angelababy": 10546, "123456": 10547, "sports": 10548, "candy": 10549, "##new": 10550, "##here": 10551, "swissinfo": 10552, "dram": 10553, "##ual": 10554, "##vice": 10555, "##wer": 10556, "sport": 10557, "q1": 10558, "ios10": 10559, "##mll": 10560, "wan": 10561, "##uk": 10562, "x3": 10563, "0t": 10564, "##ming": 10565, "e5": 10566, "##3d": 10567, "h7n9": 10568, "worldcat": 10569, "##vo": 10570, "##led": 10571, "##580": 10572, "##ax": 10573, "##ert": 10574, "polo": 10575, "##lr": 10576, "##hing": 10577, "##chat": 10578, "##ule": 10579, "hotmail": 10580, "##pad": 10581, "bbq": 10582, "##ring": 10583, "wali": 10584, "2k": 10585, "costco": 10586, "switch": 10587, "##city": 10588, "philips": 10589, "##mann": 10590, "panasonic": 10591, "##cl": 10592, "##vd": 10593, "##ping": 10594, "##rge": 10595, "##lk": 10596, "css3": 10597, "##ney": 10598, "##ular": 10599, "##400": 10600, "##tter": 10601, "lz": 10602, "##tm": 10603, "##yan": 10604, "##let": 10605, "coach": 10606, "##pt": 10607, "a8": 10608, "follow": 10609, "##berry": 10610, "##ew": 10611, "##wn": 10612, "##og": 10613, "##code": 10614, "##rid": 10615, "villa": 10616, "git": 10617, "r11": 10618, "##cket": 10619, "error": 10620, "##anonymoussaid": 10621, "##ag": 10622, "##ame": 10623, "##gc": 10624, "qa": 10625, "##lis": 10626, "##gin": 10627, "vmalife": 10628, "##cher": 10629, "wedding": 10630, "##tis": 10631, "demo": 10632, "bye": 10633, "##rant": 10634, "orz": 10635, "acer": 10636, "##ats": 10637, "##ven": 10638, "macd": 10639, "yougou": 10640, "##dn": 10641, "##ano": 10642, "##urt": 10643, "##rent": 10644, "continue": 10645, "script": 10646, "##wen": 10647, "##ect": 10648, "paper": 10649, "##chel": 10650, "##cat": 10651, "x5": 10652, "fox": 10653, "##blog": 10654, "loading": 10655, "##yn": 10656, "##tp": 10657, "kuso": 10658, "799": 10659, "vdc": 10660, "forest": 10661, "prime": 10662, "ultra": 10663, "##rmb": 10664, "square": 10665, "##field": 10666, "##reen": 10667, "##ors": 10668, "##ju": 10669, "##air": 10670, "##map": 10671, "cdn": 10672, "##wo": 10673, "m8": 10674, "##get": 10675, "opera": 10676, "##base": 10677, "##ood": 10678, "vsa": 10679, "##aw": 10680, "##ail": 10681, "count": 10682, "##een": 10683, "##gp": 10684, "vsc": 10685, "tree": 10686, "##eg": 10687, "##ose": 10688, "##ories": 10689, "##shop": 10690, "alphago": 10691, "v4": 10692, "fluke62max": 10693, "zip": 10694, "##sta": 10695, "bas": 10696, "##yer": 10697, "hadoop": 10698, "##ube": 10699, "##wi": 10700, "0755": 10701, "hola": 10702, "##low": 10703, "centre": 10704, "##fer": 10705, "##750": 10706, "##media": 10707, "##san": 10708, "##bank": 10709, "q3": 10710, "##nge": 10711, "##mail": 10712, "##lp": 10713, "client": 10714, "event": 10715, "vincent": 10716, "##nse": 10717, "sui": 10718, "adchoice": 10719, "##stry": 10720, "##zone": 10721, "ga": 10722, "apps": 10723, "##ab": 10724, "##rner": 10725, "kymco": 10726, "##care": 10727, "##pu": 10728, "##yi": 10729, "minkoff": 10730, "annie": 10731, "collection": 10732, "kpi": 10733, "playstation": 10734, "bh": 10735, "##bar": 10736, "armani": 10737, "##xy": 10738, "iherb": 10739, "##ery": 10740, "##share": 10741, "##ob": 10742, "volvo": 10743, "##ball": 10744, "##hk": 10745, "##cp": 10746, "##rie": 10747, "##ona": 10748, "##sl": 10749, "gtx": 10750, "rdquo": 10751, "jayz": 10752, "##lex": 10753, "##rum": 10754, "namespace": 10755, "##ale": 10756, "##atic": 10757, "##erson": 10758, "##ql": 10759, "##ves": 10760, "##type": 10761, "enter": 10762, "##168": 10763, "##mix": 10764, "##bian": 10765, "a9": 10766, "ky": 10767, "##lc": 10768, "movie": 10769, "##hc": 10770, "tower": 10771, "##ration": 10772, "##mit": 10773, "##nch": 10774, "ua": 10775, "tel": 10776, "prefix": 10777, "##o2": 10778, "##point": 10779, "ott": 10780, "##http": 10781, "##ury": 10782, "baidu": 10783, "##ink": 10784, "member": 10785, "##logy": 10786, "bigbang": 10787, "nownews": 10788, "##js": 10789, "##shot": 10790, "##tb": 10791, "eba": 10792, "##tics": 10793, "##lus": 10794, "spark": 10795, "##ama": 10796, "##ions": 10797, "##lls": 10798, "##down": 10799, "##ress": 10800, "burberry": 10801, "day2": 10802, "##kv": 10803, "related": 10804, "edit": 10805, "##ark": 10806, "cx": 10807, "32gb": 10808, "g9": 10809, "##ans": 10810, "##tty": 10811, "s5": 10812, "##bee": 10813, "thread": 10814, "xr": 10815, "buy": 10816, "spotify": 10817, "##ari": 10818, "##verse": 10819, "7headlines": 10820, "nego": 10821, "sunny": 10822, "dom": 10823, "positioning": 10824, "fit": 10825, "##tton": 10826, "alexa": 10827, "##ties": 10828, "##llow": 10829, "amy": 10830, "##du": 10831, "##rth": 10832, "##lar": 10833, "2345": 10834, "##des": 10835, "sidebar": 10836, "site": 10837, "##cky": 10838, "##kit": 10839, "##ime": 10840, "##009": 10841, "season": 10842, "##fun": 10843, "gogoro": 10844, "a7": 10845, "lily": 10846, "twd600": 10847, "##vis": 10848, "##cture": 10849, "friday": 10850, "yi": 10851, "##tta": 10852, "##tel": 10853, "##lock": 10854, "economy": 10855, "tinker": 10856, "8gb": 10857, "##app": 10858, "oops": 10859, "##right": 10860, "edm": 10861, "##cent": 10862, "supreme": 10863, "##its": 10864, "##asia": 10865, "dropbox": 10866, "##tti": 10867, "books": 10868, "##tle": 10869, "##ller": 10870, "##ken": 10871, "##more": 10872, "##boy": 10873, "sex": 10874, "##dom": 10875, "##ider": 10876, "##unch": 10877, "##put": 10878, "##gh": 10879, "ka": 10880, "amoled": 10881, "div": 10882, "##tr": 10883, "##n1": 10884, "port": 10885, "howard": 10886, "##tags": 10887, "ken": 10888, "##nus": 10889, "adsense": 10890, "buff": 10891, "thunder": 10892, "##town": 10893, "##ique": 10894, "##body": 10895, "pin": 10896, "##erry": 10897, "tee": 10898, "##the": 10899, "##013": 10900, "udnbkk": 10901, "16gb": 10902, "##mic": 10903, "miui": 10904, "##tro": 10905, "##alk": 10906, "##nity": 10907, "s4": 10908, "##oa": 10909, "docomo": 10910, "##tf": 10911, "##ack": 10912, "fc2": 10913, "##ded": 10914, "##sco": 10915, "##014": 10916, "##rite": 10917, "linkedin": 10918, "##ada": 10919, "##now": 10920, "##ndy": 10921, "ucbug": 10922, "sputniknews": 10923, "legalminer": 10924, "##ika": 10925, "##xp": 10926, "##bu": 10927, "q10": 10928, "##rman": 10929, "cheese": 10930, "ming": 10931, "maker": 10932, "##gm": 10933, "nikon": 10934, "##fig": 10935, "ppi": 10936, "jchere": 10937, "ted": 10938, "fgo": 10939, "tech": 10940, "##tto": 10941, "##gl": 10942, "##len": 10943, "hair": 10944, "img": 10945, "##pper": 10946, "##a1": 10947, "acca": 10948, "##ition": 10949, "##ference": 10950, "suite": 10951, "##ig": 10952, "##mond": 10953, "##cation": 10954, "##pr": 10955, "101vip": 10956, "##999": 10957, "64gb": 10958, "airport": 10959, "##over": 10960, "##ith": 10961, "##su": 10962, "town": 10963, "piece": 10964, "##llo": 10965, "no1": 10966, "##qi": 10967, "focus": 10968, "reader": 10969, "##admin": 10970, "##ora": 10971, "false": 10972, "##log": 10973, "##ces": 10974, "##ume": 10975, "motel": 10976, "##oper": 10977, "flickr": 10978, "netcomponents": 10979, "##af": 10980, "pose": 10981, "##ound": 10982, "##cg": 10983, "##site": 10984, "##iko": 10985, "con": 10986, "##ath": 10987, "##hip": 10988, "##rey": 10989, "cream": 10990, "##cks": 10991, "012": 10992, "##dp": 10993, "facebooktwitterpinterestgoogle": 10994, "sso": 10995, "shtml": 10996, "swiss": 10997, "##mw": 10998, "lumia": 10999, "xdd": 11000, "tiffany": 11001, "insee": 11002, "russell": 11003, "dell": 11004, "##ations": 11005, "camera": 11006, "##vs": 11007, "##flow": 11008, "##late": 11009, "classic": 11010, "##nter": 11011, "##ever": 11012, "##lab": 11013, "##nger": 11014, "qe": 11015, "##cing": 11016, "editor": 11017, "##nap": 11018, "sunday": 11019, "##ens": 11020, "##700": 11021, "##bra": 11022, "acg": 11023, "sofascore": 11024, "mkv": 11025, "##ign": 11026, "jonathan": 11027, "build": 11028, "labels": 11029, "##oto": 11030, "tesla": 11031, "moba": 11032, "gohappy": 11033, "ajax": 11034, "##test": 11035, "##urs": 11036, "wps": 11037, "fedora": 11038, "##ich": 11039, "mozilla": 11040, "##480": 11041, "##dr": 11042, "urn": 11043, "##lina": 11044, "grace": 11045, "##die": 11046, "##try": 11047, "##ader": 11048, "elle": 11049, "##chen": 11050, "price": 11051, "##ten": 11052, "uhz": 11053, "##ough": 11054, "##hen": 11055, "states": 11056, "push": 11057, "session": 11058, "balance": 11059, "wow": 11060, "##cus": 11061, "##py": 11062, "##ward": 11063, "##ep": 11064, "34e": 11065, "wong": 11066, "prada": 11067, "##cle": 11068, "##ree": 11069, "q4": 11070, "##ctive": 11071, "##ool": 11072, "##ira": 11073, "##163": 11074, "rq": 11075, "buffet": 11076, "e6": 11077, "##ez": 11078, "##card": 11079, "##cha": 11080, "day3": 11081, "eye": 11082, "##end": 11083, "adi": 11084, "tvbs": 11085, "##ala": 11086, "nova": 11087, "##tail": 11088, "##ries": 11089, "##ved": 11090, "base": 11091, "##ways": 11092, "hero": 11093, "hgih": 11094, "profile": 11095, "fish": 11096, "mu": 11097, "ssh": 11098, "##wd": 11099, "click": 11100, "cake": 11101, "##ond": 11102, "pre": 11103, "##tom": 11104, "kic": 11105, "pixel": 11106, "##ov": 11107, "##fl": 11108, "product": 11109, "6a": 11110, "##pd": 11111, "dear": 11112, "##gate": 11113, "yumi": 11114, "##sky": 11115, "bin": 11116, "##ture": 11117, "##ape": 11118, "isis": 11119, "nand": 11120, "##101": 11121, "##load": 11122, "##ream": 11123, "a6": 11124, "##post": 11125, "##we": 11126, "zenfone": 11127, "##ike": 11128, "gd": 11129, "forum": 11130, "jessica": 11131, "##ould": 11132, "##ious": 11133, "lohasthree": 11134, "##gar": 11135, "##ggle": 11136, "##ric": 11137, "##own": 11138, "eclipse": 11139, "##side": 11140, "061": 11141, "##other": 11142, "##tech": 11143, "##ator": 11144, "engine": 11145, "##ged": 11146, "plaza": 11147, "##fit": 11148, "westbrook": 11149, "reuters": 11150, "##ily": 11151, "contextlink": 11152, "##hn": 11153, "##cil": 11154, "##cel": 11155, "cambridge": 11156, "##ize": 11157, "##aid": 11158, "##data": 11159, "frm": 11160, "##head": 11161, "butler": 11162, "##sun": 11163, "##mar": 11164, "puma": 11165, "pmid": 11166, "kitchen": 11167, "##lic": 11168, "day1": 11169, "##text": 11170, "##page": 11171, "##rris": 11172, "pm1": 11173, "##ket": 11174, "trackback": 11175, "##hai": 11176, "display": 11177, "##hl": 11178, "idea": 11179, "##sent": 11180, "airmail": 11181, "##ug": 11182, "##men": 11183, "028": 11184, "##lution": 11185, "schemas": 11186, "asics": 11187, "wikipedia": 11188, "##tional": 11189, "##vy": 11190, "##dget": 11191, "##ein": 11192, "contact": 11193, "pepper": 11194, "##uel": 11195, "##ument": 11196, "##hang": 11197, "q5": 11198, "##sue": 11199, "##ndi": 11200, "swatch": 11201, "##cept": 11202, "popular": 11203, "##ste": 11204, "##tag": 11205, "trc": 11206, "##west": 11207, "##live": 11208, "honda": 11209, "ping": 11210, "messenger": 11211, "##rap": 11212, "v9": 11213, "unity": 11214, "appqq": 11215, "leo": 11216, "##tone": 11217, "##ass": 11218, "uniqlo": 11219, "##010": 11220, "moneydj": 11221, "##tical": 11222, "12306": 11223, "##m2": 11224, "coc": 11225, "miacare": 11226, "##mn": 11227, "tmt": 11228, "##core": 11229, "vim": 11230, "kk": 11231, "##may": 11232, "target": 11233, "##2c": 11234, "##ope": 11235, "omega": 11236, "pinkoi": 11237, "##rain": 11238, "##ement": 11239, "p9": 11240, "rd": 11241, "##tier": 11242, "##vic": 11243, "zone": 11244, "isofix": 11245, "cpa": 11246, "kimi": 11247, "##lay": 11248, "lulu": 11249, "##uck": 11250, "050": 11251, "weeks": 11252, "##hop": 11253, "##ear": 11254, "eia": 11255, "##fly": 11256, "korea": 11257, "boost": 11258, "##ship": 11259, "eur": 11260, "valley": 11261, "##iel": 11262, "##ude": 11263, "rn": 11264, "##ena": 11265, "feed": 11266, "5757": 11267, "qqmei": 11268, "##thing": 11269, "aws": 11270, "pink": 11271, "##ters": 11272, "##kin": 11273, "board": 11274, "##vertisement": 11275, "wine": 11276, "##ien": 11277, "##dge": 11278, "##tant": 11279, "##twitter": 11280, "##3c": 11281, "cool1": 11282, "##012": 11283, "##150": 11284, "##fu": 11285, "##iner": 11286, "googlemsn": 11287, "pixnetfacebookyahoo": 11288, "x7": 11289, "##uce": 11290, "sao": 11291, "##ev": 11292, "##file": 11293, "9678": 11294, "xddd": 11295, "shirt": 11296, "##rio": 11297, "##hat": 11298, "givenchy": 11299, "bang": 11300, "##lio": 11301, "monday": 11302, "##abc": 11303, "ubuntuforumwikilinuxpastechat": 11304, "##vc": 11305, "##rity": 11306, "7866": 11307, "##ost": 11308, "imsean": 11309, "tiger": 11310, "##fet": 11311, "dji": 11312, "##come": 11313, "##beth": 11314, "##aft": 11315, "##don": 11316, "3p": 11317, "emma": 11318, "##khz": 11319, "x6": 11320, "##face": 11321, "pptv": 11322, "x4": 11323, "##mate": 11324, "sophie": 11325, "##jing": 11326, "fifa": 11327, "##mand": 11328, "sale": 11329, "inwedding": 11330, "##gn": 11331, "##mmy": 11332, "##pmlast": 11333, "nana": 11334, "##wu": 11335, "note7": 11336, "##340": 11337, "##bel": 11338, "window": 11339, "##dio": 11340, "##ht": 11341, "##ivity": 11342, "domain": 11343, "neo": 11344, "##isa": 11345, "##lter": 11346, "5k": 11347, "f5": 11348, "##cts": 11349, "ft": 11350, "zol": 11351, "##act": 11352, "mwc": 11353, "nbapop": 11354, "eds": 11355, "##room": 11356, "previous": 11357, "tomtom": 11358, "##ets": 11359, "5t": 11360, "chi": 11361, "##hg": 11362, "fairmont": 11363, "gay": 11364, "1b": 11365, "##raph": 11366, "##ils": 11367, "i3": 11368, "avenue": 11369, "##host": 11370, "##bon": 11371, "##tsu": 11372, "message": 11373, "navigation": 11374, "fintech": 11375, "h6": 11376, "##ject": 11377, "##vas": 11378, "##firm": 11379, "credit": 11380, "##wf": 11381, "xxxx": 11382, "##nor": 11383, "##space": 11384, "huawei": 11385, "plan": 11386, "json": 11387, "sbl": 11388, "##dc": 11389, "wish": 11390, "##120": 11391, "##sol": 11392, "windows7": 11393, "washington": 11394, "##nsis": 11395, "lo": 11396, "##sio": 11397, "##ym": 11398, "##bor": 11399, "planet": 11400, "##wt": 11401, "gpa": 11402, "##tw": 11403, "##oka": 11404, "connect": 11405, "##rss": 11406, "##work": 11407, "##atus": 11408, "chicken": 11409, "##times": 11410, "fa": 11411, "##ather": 11412, "##cord": 11413, "009": 11414, "##eep": 11415, "hitachi": 11416, "##pan": 11417, "disney": 11418, "##press": 11419, "wind": 11420, "frigidaire": 11421, "##tl": 11422, "hsu": 11423, "##ull": 11424, "expedia": 11425, "archives": 11426, "##wei": 11427, "cut": 11428, "ins": 11429, "6gb": 11430, "brand": 11431, "cf1": 11432, "##rip": 11433, "##nis": 11434, "128gb": 11435, "3t": 11436, "##oon": 11437, "quick": 11438, "15058": 11439, "wing": 11440, "##bug": 11441, "##cms": 11442, "##dar": 11443, "##oh": 11444, "zoom": 11445, "trip": 11446, "##nba": 11447, "rcep": 11448, "aspx": 11449, "080": 11450, "gnu": 11451, "##count": 11452, "##url": 11453, "##ging": 11454, "8591": 11455, "am09": 11456, "shadow": 11457, "##cia": 11458, "emily": 11459, "##tation": 11460, "host": 11461, "ff": 11462, "techorz": 11463, "##mini": 11464, "##mporary": 11465, "##ering": 11466, "##next": 11467, "cma": 11468, "##mbps": 11469, "##gas": 11470, "##ift": 11471, "##dot": 11472, "amana": 11473, "##ros": 11474, "##eet": 11475, "##ible": 11476, "##aka": 11477, "##lor": 11478, "maggie": 11479, "##011": 11480, "##iu": 11481, "##gt": 11482, "1tb": 11483, "articles": 11484, "##burg": 11485, "##iki": 11486, "database": 11487, "fantasy": 11488, "##rex": 11489, "##cam": 11490, "dlc": 11491, "dean": 11492, "##you": 11493, "path": 11494, "gaming": 11495, "victoria": 11496, "maps": 11497, "##lee": 11498, "##itor": 11499, "overchicstoretvhome": 11500, "##xt": 11501, "##nan": 11502, "x9": 11503, "install": 11504, "##ann": 11505, "##ph": 11506, "##rcle": 11507, "##nic": 11508, "##nar": 11509, "metro": 11510, "chocolate": 11511, "##rian": 11512, "##table": 11513, "skin": 11514, "##sn": 11515, "mountain": 11516, "##0mm": 11517, "inparadise": 11518, "7x24": 11519, "##jia": 11520, "eeworld": 11521, "creative": 11522, "g5": 11523, "parker": 11524, "ecfa": 11525, "village": 11526, "sylvia": 11527, "hbl": 11528, "##ques": 11529, "##onsored": 11530, "##x2": 11531, "##v4": 11532, "##tein": 11533, "ie6": 11534, "##stack": 11535, "ver": 11536, "##ads": 11537, "##baby": 11538, "bbe": 11539, "##110": 11540, "##lone": 11541, "##uid": 11542, "ads": 11543, "022": 11544, "gundam": 11545, "006": 11546, "scrum": 11547, "match": 11548, "##ave": 11549, "##470": 11550, "##oy": 11551, "##talk": 11552, "glass": 11553, "lamigo": 11554, "##eme": 11555, "##a5": 11556, "wade": 11557, "kde": 11558, "##lace": 11559, "ocean": 11560, "tvg": 11561, "##covery": 11562, "##r3": 11563, "##ners": 11564, "##rea": 11565, "##aine": 11566, "cover": 11567, "##ision": 11568, "##sia": 11569, "##bow": 11570, "msi": 11571, "##love": 11572, "soft": 11573, "z2": 11574, "##pl": 11575, "mobil": 11576, "##uy": 11577, "nginx": 11578, "##oi": 11579, "##rr": 11580, "6221": 11581, "##mple": 11582, "##sson": 11583, "##nts": 11584, "91tv": 11585, "comhd": 11586, "crv3000": 11587, "##uard": 11588, "gallery": 11589, "##bia": 11590, "rate": 11591, "spf": 11592, "redis": 11593, "traction": 11594, "icloud": 11595, "011": 11596, "jose": 11597, "##tory": 11598, "sohu": 11599, "899": 11600, "kicstart2": 11601, "##hia": 11602, "##sit": 11603, "##walk": 11604, "##xure": 11605, "500g": 11606, "##pact": 11607, "xa": 11608, "carlo": 11609, "##250": 11610, "##walker": 11611, "##can": 11612, "cto": 11613, "gigi": 11614, "pen": 11615, "##hoo": 11616, "ob": 11617, "##yy": 11618, "13913459": 11619, "##iti": 11620, "mango": 11621, "##bbs": 11622, "sense": 11623, "oxford": 11624, "walker": 11625, "jennifer": 11626, "##ola": 11627, "course": 11628, "##bre": 11629, "##pus": 11630, "##rder": 11631, "lucky": 11632, "075": 11633, "ivy": 11634, "##nia": 11635, "sotheby": 11636, "##ugh": 11637, "joy": 11638, "##orage": 11639, "##ush": 11640, "##bat": 11641, "##dt": 11642, "r9": 11643, "##2d": 11644, "##gio": 11645, "wear": 11646, "##lax": 11647, "##moon": 11648, "seven": 11649, "lonzo": 11650, "8k": 11651, "evolution": 11652, "##kk": 11653, "kd": 11654, "arduino": 11655, "##lux": 11656, "arpg": 11657, "##rdon": 11658, "cook": 11659, "##x5": 11660, "five": 11661, "##als": 11662, "##ida": 11663, "sign": 11664, "##nda": 11665, "##posted": 11666, "fresh": 11667, "##mine": 11668, "##skip": 11669, "##form": 11670, "##ssion": 11671, "##tee": 11672, "dyson": 11673, "stage": 11674, "##jie": 11675, "##night": 11676, "epson": 11677, "pack": 11678, "##ppy": 11679, "wd": 11680, "##eh": 11681, "##rence": 11682, "##lvin": 11683, "golden": 11684, "discovery": 11685, "##trix": 11686, "##n2": 11687, "loft": 11688, "##uch": 11689, "##dra": 11690, "##sse": 11691, "1mdb": 11692, "welcome": 11693, "##urn": 11694, "gaga": 11695, "##lmer": 11696, "teddy": 11697, "##160": 11698, "##f2016": 11699, "##sha": 11700, "rar": 11701, "holiday": 11702, "074": 11703, "##vg": 11704, "##nos": 11705, "##rail": 11706, "gartner": 11707, "gi": 11708, "6p": 11709, "##dium": 11710, "kit": 11711, "b3": 11712, "eco": 11713, "sean": 11714, "##stone": 11715, "nu": 11716, "##np": 11717, "f16": 11718, "write": 11719, "029": 11720, "m5": 11721, "##ias": 11722, "##dk": 11723, "fsm": 11724, "52kb": 11725, "##xxx": 11726, "##cake": 11727, "lim": 11728, "ru": 11729, "1v": 11730, "##ification": 11731, "published": 11732, "angela": 11733, "16g": 11734, "analytics": 11735, "##nel": 11736, "gmt": 11737, "##icon": 11738, "##bby": 11739, "ios11": 11740, "waze": 11741, "9985": 11742, "##ust": 11743, "##007": 11744, "delete": 11745, "52sykb": 11746, "wwdc": 11747, "027": 11748, "##fw": 11749, "1389": 11750, "##xon": 11751, "brandt": 11752, "##ses": 11753, "##dragon": 11754, "vetements": 11755, "anne": 11756, "monte": 11757, "official": 11758, "##ere": 11759, "##nne": 11760, "##oud": 11761, "etnews": 11762, "##a2": 11763, "##graphy": 11764, "##rtex": 11765, "##gma": 11766, "mount": 11767, "archive": 11768, "morning": 11769, "tan": 11770, "ddos": 11771, "e7": 11772, "day4": 11773, "factory": 11774, "bruce": 11775, "##ito": 11776, "guest": 11777, "##lling": 11778, "n3": 11779, "mega": 11780, "women": 11781, "dac": 11782, "church": 11783, "##jun": 11784, "singapore": 11785, "##facebook": 11786, "6991": 11787, "starbucks": 11788, "##tos": 11789, "##stin": 11790, "##shine": 11791, "zen": 11792, "##mu": 11793, "tina": 11794, "request": 11795, "##gence": 11796, "q7": 11797, "##zzi": 11798, "diary": 11799, "##tore": 11800, "##ead": 11801, "cst": 11802, "##osa": 11803, "canada": 11804, "va": 11805, "##jiang": 11806, "##lam": 11807, "##nix": 11808, "##sday": 11809, "g6": 11810, "##master": 11811, "bing": 11812, "##zl": 11813, "nb40": 11814, "thai": 11815, "ln284ct": 11816, "##itz": 11817, "##2f": 11818, "bonnie": 11819, "##food": 11820, "##lent": 11821, "originals": 11822, "##stro": 11823, "##lts": 11824, "##bscribe": 11825, "ntd": 11826, "yesstyle": 11827, "hmv": 11828, "##tment": 11829, "d5": 11830, "##pn": 11831, "topios9": 11832, "lifestyle": 11833, "virtual": 11834, "##ague": 11835, "xz": 11836, "##deo": 11837, "muji": 11838, "024": 11839, "unt": 11840, "##nnis": 11841, "faq1": 11842, "##ette": 11843, "curry": 11844, "##pop": 11845, "release": 11846, "##cast": 11847, "073": 11848, "##ews": 11849, "5c": 11850, "##stle": 11851, "ios7": 11852, "##ima": 11853, "dog": 11854, "lenovo": 11855, "##r4": 11856, "013": 11857, "vornado": 11858, "##desk": 11859, "##ald": 11860, "9595": 11861, "##van": 11862, "oil": 11863, "common": 11864, "##jy": 11865, "##lines": 11866, "g7": 11867, "twice": 11868, "ella": 11869, "nano": 11870, "belle": 11871, "##mes": 11872, "##self": 11873, "##note": 11874, "benz": 11875, "##ova": 11876, "##wing": 11877, "kai": 11878, "##hua": 11879, "##rect": 11880, "rainer": 11881, "##unge": 11882, "##0m": 11883, "guestname": 11884, "##uma": 11885, "##kins": 11886, "##zu": 11887, "tokichoi": 11888, "##price": 11889, "##med": 11890, "##mus": 11891, "rmk": 11892, "address": 11893, "vm": 11894, "openload": 11895, "##group": 11896, "##hin": 11897, "##iginal": 11898, "amg": 11899, "urban": 11900, "##oz": 11901, "jobs": 11902, "##public": 11903, "##sch": 11904, "##dden": 11905, "##bell": 11906, "hostel": 11907, "##drive": 11908, "##rmin": 11909, "boot": 11910, "##370": 11911, "##fx": 11912, "##nome": 11913, "##ctionary": 11914, "##oman": 11915, "##lish": 11916, "##cr": 11917, "##hm": 11918, "##how": 11919, "francis": 11920, "c919": 11921, "b5": 11922, "evernote": 11923, "##uc": 11924, "##3000": 11925, "coupe": 11926, "##urg": 11927, "##cca": 11928, "##uality": 11929, "019": 11930, "##ett": 11931, "##ani": 11932, "##tax": 11933, "##rma": 11934, "leonnhurt": 11935, "##jin": 11936, "ict": 11937, "bird": 11938, "notes": 11939, "##dical": 11940, "##lli": 11941, "result": 11942, "iu": 11943, "ee": 11944, "smap": 11945, "gopro": 11946, "##last": 11947, "yin": 11948, "pure": 11949, "32g": 11950, "##dan": 11951, "##rame": 11952, "mama": 11953, "##oot": 11954, "bean": 11955, "##hur": 11956, "2l": 11957, "bella": 11958, "sync": 11959, "xuite": 11960, "##ground": 11961, "discuz": 11962, "##getrelax": 11963, "##ince": 11964, "##bay": 11965, "##5s": 11966, "apt": 11967, "##pass": 11968, "jing": 11969, "##rix": 11970, "rich": 11971, "niusnews": 11972, "##ello": 11973, "bag": 11974, "##eting": 11975, "##mobile": 11976, "##ience": 11977, "details": 11978, "universal": 11979, "silver": 11980, "dit": 11981, "private": 11982, "ddd": 11983, "u11": 11984, "kanshu": 11985, "##ified": 11986, "fung": 11987, "##nny": 11988, "dx": 11989, "##520": 11990, "tai": 11991, "023": 11992, "##fr": 11993, "##lean": 11994, "##pin": 11995, "##rin": 11996, "ly": 11997, "rick": 11998, "##bility": 11999, "banner": 12000, "##baru": 12001, "##gion": 12002, "vdf": 12003, "qualcomm": 12004, "bear": 12005, "oldid": 12006, "ian": 12007, "jo": 12008, "##tors": 12009, "population": 12010, "##ernel": 12011, "##mv": 12012, "##bike": 12013, "ww": 12014, "##ager": 12015, "exhibition": 12016, "##del": 12017, "##pods": 12018, "fpx": 12019, "structure": 12020, "##free": 12021, "##tings": 12022, "kl": 12023, "##rley": 12024, "##copyright": 12025, "##mma": 12026, "orange": 12027, "yoga": 12028, "4l": 12029, "canmake": 12030, "honey": 12031, "##anda": 12032, "nikkie": 12033, "dhl": 12034, "publishing": 12035, "##mall": 12036, "##gnet": 12037, "e88": 12038, "##dog": 12039, "fishbase": 12040, "###": 12041, "##[": 12042, "\u3002": 12043, "\uff01": 12044, "\uff1f": 12045, "!": 12046, "?": 12047, "\uff1b": 12048, ":": 12049, ";": 12050, "-": 12051, "(": 12052, ")": 12053, "/": 12054, "+": 12055, "\"": 12056, "_": 12057, "\u2026": 12058, "~": 12059, "=": 12060, "'": 12061, "%": 12062, "&": 12063, "\u00b7": 12064, "*": 12065, "@": 12066, "\\": 12067, "]": 12068, "\u2014": 12069, "\uff5e": 12070, "^": 12071, ">": 12072, "\u4e28": 12073, "|": 12074, "<": 12075, "\u3011": 12076, "\u306e": 12077, "\u3010": 12078, "\u3014": 12079, "\u3015": 12080, "\u30fc": 12081, "\u2605": 12082, "\u2019": 12083, "{": 12084, "}": 12085, "\u2018": 12086, "\u5738": 12087, "\u99e6": 12088, "\u4eb4": 12089, "\u6d7e": 12090, "\u84f9": 12091, "\u9acf": 12092, "\u71dc": 12093, "\u71de": 12094, "\u71e3": 12095, "\u9f40": 12096, "\u8a36": 12097, "\u8a02": 12098, "\u9f6a": 12099, "\u8547": 12100, "\u8575": 12101, "\u569d": 12102, "\u9a68": 12103, "\u78ae": 12104, "\u6093": 12105, "\u6091": 12106, "\u8ab1": 12107, "\u8aa1": 12108, "\u8a9d": 12109, "\u8a85": 12110, "\u5d48": 12111, "\u5d44": 12112, "\u561d": 12113, "\u69e8": 12114, "\u69d7": 12115, "\u85c8": 12116, "\u85c0": 12117, "\u85ea": 12118, "\u85f2": 12119, "\u6008": 12120, "\u7b17": 12121, "\u7b27": 12122, "\u70e0": 12123, "\u70e2": 12124, "\u70c5": 12125, "\u70d0": 12126, "\u9290": 12127, "\u8b3e": 12128, "\u8b20": 12129, "\u8b06": 12130, "\u930a": 12131, "\u8243": 12132, "\u8265": 12133, "\u826c": 12134, "\u9317": 12135, "\u9b79": 12136, "\u5aab": 12137, "\u9213": 12138, "\u920d": 12139, "\u9228": 12140, "\u8b8d": 12141, "\u5528": 12142, "\u7d5e": 12143, "\u6ac5": 12144, "\u6adb": 12145, "\u6ad2": 12146, "\u6aef": 12147, "\u5b0c": 12148, "\u5b02": 12149, "\u5b1a": 12150, "\u5b2f": 12151, "\u5b35": 12152, "\u7a26": 12153, "\u9380": 12154, "\u93bc": 12155, "\u93be": 12156, "\u93b1": 12157, "\u93a8": 12158, "\u8800": 12159, "\u881e": 12160, "\u6a43": 12161, "\u6a7d": 12162, "\u6a62": 12163, "\u6a60": 12164, "\u6a69": 12165, "\u9f06": 12166, "\u7de1": 12167, "\u5a80": 12168, "\u5a98": 12169, "\u5ab6": 12170, "\u7ab2": 12171, "\u8ae7": 12172, "\u9843": 12173, "\u6c80": 12174, "\u932d": 12175, "\u9307": 12176, "\u88a9": 12177, "\u88a6": 12178, "\u88b3": 12179, "\u7268": 12180, "\u7c7f": 12181, "\u95ab": 12182, "\u95b1": 12183, "\u6bdc": 12184, "\u6bc3": 12185, "\u6be2": 12186, "\u621c": 12187, "\u52ea": 12188, "\u52f6": 12189, "\u6185": 12190, "\u893b": 12191, "\u6b7d": 12192, "\u6b71": 12193, "\u8040": 12194, "\u8050": 12195, "\u7cf4": 12196, "\u599b": 12197, "\u59b0": 12198, "\u9952": 12199, "\u8e63": 12200, "\u8e64": 12201, "\u7e25": 12202, "\u9027": 12203, "\u8993": 12204, "\u8995": 12205, "\u898d": 12206, "\u5262": 12207, "\u5246": 12208, "\u7f70": 12209, "\u64c6": 12210, "\u64df": 12211, "\u650c": 12212, "\u96e1": 12213, "\u633e": 12214, "\u8ed4": 12215, "\u8ed5": 12216, "\u8ef8": 12217, "\u8ef4": 12218, "\u7437": 12219, "\u91a6": 12220, "\u9199": 12221, "\u918f": 12222, "\u8623": 12223, "\u8632": 12224, "\u8631": 12225, "\u647f": 12226, "\u8175": 12227, "\u816b": 12228, "\u8a5c": 12229, "\u7fd7": 12230, "\u7ff9": 12231, "\u58a4": 12232, "\u58bd": 12233, "\u74b6": 12234, "\u74bd": 12235, "\u74a3": 12236, "\u6501": 12237, "\u6e91": 12238, "\u9c84": 12239, "\u7e65": 12240, "\u99da": 12241, "\u99c1": 12242, "\u9bef": 12243, "\u81f9": 12244, "\u81d4": 12245, "\u99ff": 12246, "\u99fa": 12247, "\u582c": 12248, "\u7731": 12249, "\u50de": 12250, "\u872c": 12251, "\u8738": 12252, "\u656e": 12253, "\u9755": 12254, "\u8c44": 12255, "\u87aa": 12256, "\u8792": 12257, "\u4f47": 12258, "\u797d": 12259, "\u9c20": 12260, "\u66eb": 12261, "\u9c01": 12262, "\u66ca": 12263, "\u8cf0": 12264, "\u8cc8": 12265, "\u8cc9": 12266, "\u8cd1": 12267, "\u6b1a": 12268, "\u6b16": 12269, "\u4fd5": 12270, "\u6b2a": 12271, "\u7b68": 12272, "\u6f23": 12273, "\u843a": 12274, "\u7798": 12275, "\u79f4": 12276, "\u79db": 12277, "\u5e98": 12278, "\u992f": 12279, "\u947b": 12280, "\u7689": 12281, "\u76ab": 12282, "\u76a8": 12283, "\u76bc": 12284, "\u8aeb": 12285, "\u92c1": 12286, "\u84ab": 12287, "\u8ac3": 12288, "\u577e": 12289, "\u7858": 12290, "\u9d2d": 12291, "\u9d23": 12292, "\u9d32": 12293, "\u9d0b": 12294, "\u9d04": 12295, "\u9ea9": 12296, "\u5e3f": 12297, "\u8514": 12298, "\u8525": 12299, "\u6836": 12300, "\u5d91": 12301, "\u7186": 12302, "\u71b6": 12303, "\u71aa": 12304, "\u8a6c": 12305, "\u8a6f": 12306, "\u8a54": 12307, "\u6992": 12308, "\u698f": 12309, "\u9bc9": 12310, "\u5667": 12311, "\u566e": 12312, "\u564b": 12313, "\u8598": 12314, "\u9a3f": 12315, "\u60c2": 12316, "\u60fb": 12317, "\u7012": 12318, "\u7030": 12319, "\u8afa": 12320, "\u8afe": 12321, "\u92cd": 12322, "\u92cc": 12323, "\u5d33": 12324, "\u55c7": 12325, "\u9bba": 12326, "\u7bfa": 12327, "\u7bf5": 12328, "\u5bf2": 12329, "\u8ae9": 12330, "\u66cd": 12331, "\u5c93": 12332, "\u5ca4": 12333, "\u66c7": 12334, "\u9b87": 12335, "\u70a8": 12336, "\u708b": 12337, "\u8b59": 12338, "\u6a9c": 12339, "\u555b": 12340, "\u8b3a": 12341, "\u5b4d": 12342, "\u5b4e": 12343, "\u5b61": 12344, "\u6d84": 12345, "\u7a66": 12346, "\u61d7": 12347, "\u61ea": 12348, "\u5c2f": 12349, "\u8325": 12350, "\u7d3b": 12351, "\u6a3a": 12352, "\u7acd": 12353, "\u7aec": 12354, "\u6144": 12355, "\u5af5": 12356, "\u53ba": 12357, "\u5387": 12358, "\u538f": 12359, "\u5392": 12360, "\u9101": 12361, "\u9364": 12362, "\u936f": 12363, "\u9341": 12364, "\u7d87": 12365, "\u7da8": 12366, "\u7dac": 12367, "\u8eb4": 12368, "\u6b8f": 12369, "\u6ba7": 12370, "\u792f": 12371, "\u5a43": 12372, "\u83a5": 12373, "\u9de1": 12374, "\u838c": 12375, "\u9dfc": 12376, "\u9dfb": 12377, "\u7558": 12378, "\u9831": 12379, "\u7209": 12380, "\u531b": 12381, "\u88d7": 12382, "\u7c22": 12383, "\u7c23": 12384, "\u75ee": 12385, "\u999f": 12386, "\u99b4": 12387, "\u99b6": 12388, "\u6f32": 12389, "\u52af": 12390, "\u8e32": 12391, "\u8968": 12392, "\u907e": 12393, "\u7cb7": 12394, "\u7ca1": 12395, "\u9e79": 12396, "\u5959": 12397, "\u61b5": 12398, "\u8ea6": 12399, "\u8eae": 12400, "\u9925": 12401, "\u91e2": 12402, "\u6ded": 12403, "\u91d5": 12404, "\u6dfe": 12405, "\u6dff": 12406, "\u520f": 12407, "\u89f4": 12408, "\u95d9": 12409, "\u811c": 12410, "\u8119": 12411, "\u8105": 12412, "\u810c": 12413, "\u642f": 12414, "\u6407": 12415, "\u640e": 12416, "\u74e5": 12417, "\u96b5": 12418, "\u58d7": 12419, "\u8f1e": 12420, "\u8f3f": 12421, "\u9141": 12422, "\u7fb7": 12423, "\u7fbb": 12424, "\u7f86": 12425, "\u6582": 12426, "\u5867": 12427, "\u81ad": 12428, "\u7777": 12429, "\u9620": 12430, "\u9625": 12431, "\u9637": 12432, "\u6ef0": 12433, "\u6ef7": 12434, "\u6eec": 12435, "\u9b1c": 12436, "\u7e07": 12437, "\u6533": 12438, "\u653c": 12439, "\u9cfc": 12440, "\u9cf5": 12441, "\u6506": 12442, "\u97a4": 12443, "\u96b8": 12444, "\u9452": 12445, "\u969a": 12446, "\u876b": 12447, "\u8775": 12448, "\u50a0": 12449, "\u4f1c": 12450, "\u4f06": 12451, "\u7e93": 12452, "\u66ba": 12453, "\u669e": 12454, "\u6b3d": 12455, "\u8c97": 12456, "\u8ca7": 12457, "\u9725": 12458, "\u766c": 12459, "\u7677": 12460, "\u970c": 12461, "\u6fd0": 12462, "\u87ff": 12463, "\u4e6b": 12464, "\u4e55": 12465, "\u7917": 12466, "\u7903": 12467, "\u790f": 12468, "\u8dac": 12469, "\u76c1": 12470, "\u76e2": 12471, "\u8d06": 12472, "\u8d16": 12473, "\u844b": 12474, "\u57bc": 12475, "\u6f70": 12476, "\u9d6c": 12477, "\u9d5a": 12478, "\u67a9": 12479, "\u67bd": 12480, "\u8da8": 12481, "\u9406": 12482, "\u9419": 12483, "\u8d83": 12484, "\u5e6f": 12485, "\u716f": 12486, "\u573d": 12487, "\u4e84": 12488, "\u4eaa": 12489, "\u68c7": 12490, "\u9472": 12491, "\u6d42": 12492, "\u68f4": 12493, "\u84d7": 12494, "\u670e": 12495, "\u6720": 12496, "\u783d": 12497, "\u71ed": 12498, "\u9f52": 12499, "\u65ba": 12500, "\u9f4b": 12501, "\u7ad5": 12502, "\u9f73": 12503, "\u8a23": 12504, "\u8a28": 12505, "\u8a0a": 12506, "\u8553": 12507, "\u8566": 12508, "\u857f": 12509, "\u5695": 12510, "\u56bd": 12511, "\u99cc": 12512, "\u99cb": 12513, "\u788a": 12514, "\u9a53": 12515, "\u78b5": 12516, "\u6b30": 12517, "\u5d40": 12518, "\u7057": 12519, "\u7079": 12520, "\u563e": 12521, "\u5606": 12522, "\u85fa": 12523, "\u85f8": 12524, "\u6036": 12525, "\u5cc0": 12526, "\u5cf5": 12527, "\u70e1": 12528, "\u70f5": 12529, "\u70fe": 12530, "\u9293": 12531, "\u8b32": 12532, "\u92b1": 12533, "\u92bf": 12534, "\u8b0a": 12535, "\u8b01": 12536, "\u92af": 12537, "\u6968": 12538, "\u8254": 12539, "\u5585": 12540, "\u5bb1": 12541, "\u7b83": 12542, "\u9b62": 12543, "\u9b6c": 12544, "\u9b78": 12545, "\u9218": 12546, "\u923f": 12547, "\u9231": 12548, "\u8b95": 12549, "\u5c6a": 12550, "\u5519": 12551, "\u7d79": 12552, "\u6ad5": 12553, "\u6ad6": 12554, "\u6aee": 12555, "\u6ae2": 12556, "\u6afa": 12557, "\u82f8": 12558, "\u98fb": 12559, "\u8aff": 12560, "\u93a7": 12561, "\u880c": 12562, "\u8807": 12563, "\u881f": 12564, "\u882c": 12565, "\u883f": 12566, "\u6a42": 12567, "\u8355": 12568, "\u7df9": 12569, "\u5ab9": 12570, "\u7a87": 12571, "\u7aa9": 12572, "\u9aaf": 12573, "\u985f": 12574, "\u88b6": 12575, "\u7c4c": 12576, "\u7c42": 12577, "\u7c72": 12578, "\u83d7": 12579, "\u99eb": 12580, "\u5a39": 12581, "\u52e1": 12582, "\u90bc": 12583, "\u6c1e": 12584, "\u6b56": 12585, "\u6b51": 12586, "\u8067": 12587, "\u8047": 12588, "\u7cff": 12589, "\u75ba": 12590, "\u9957": 12591, "\u639a": 12592, "\u8e57": 12593, "\u7f5e": 12594, "\u7f5c": 12595, "\u933f": 12596, "\u6528": 12597, "\u9e19": 12598, "\u64f5": 12599, "\u6333": 12600, "\u743d": 12601, "\u862c": 12602, "\u8157": 12603, "\u815e": 12604, "\u7fc9": 12605, "\u58b4": 12606, "\u74b4": 12607, "\u74be": 12608, "\u7489": 12609, "\u9660": 12610, "\u966f": 12611, "\u8f5b": 12612, "\u8687": 12613, "\u5158": 12614, "\u7e71": 12615, "\u7e4c": 12616, "\u7e52": 12617, "\u7e5a": 12618, "\u99c7": 12619, "\u9f36": 12620, "\u65c0": 12621, "\u65da": 12622, "\u81c5": 12623, "\u97e5": 12624, "\u99e4": 12625, "\u97d2": 12626, "\u8fc9": 12627, "\u8ff2": 12628, "\u8fec": 12629, "\u50cc": 12630, "\u50d7": 12631, "\u50eb": 12632, "\u6e35": 12633, "\u654a": 12634, "\u5fb1": 12635, "\u5fa2": 12636, "\u5fa5": 12637, "\u9779": 12638, "\u8c4d": 12639, "\u8c43": 12640, "\u6fbf": 12641, "\u6f80": 12642, "\u6f91": 12643, "\u87b9": 12644, "\u8790": 12645, "\u879b": 12646, "\u878a": 12647, "\u4f6d": 12648, "\u506e": 12649, "\u507d": 12650, "\u9c2c": 12651, "\u9c03": 12652, "\u9c1a": 12653, "\u9c19": 12654, "\u9c1e": 12655, "\u8cd8": 12656, "\u4fd6": 12657, "\u9c4b": 12658, "\u9c76": 12659, "\u8407": 12660, "\u9d81": 12661, "\u6658": 12662, "\u77a3": 12663, "\u79e8": 12664, "\u5ebf": 12665, "\u5e82": 12666, "\u68b8": 12667, "\u8ae3": 12668, "\u6895": 12669, "\u5779": 12670, "\u785b": 12671, "\u7846": 12672, "\u9d2c": 12673, "\u9d22": 12674, "\u7112": 12675, "\u711d": 12676, "\u7123": 12677, "\u5e2a": 12678, "\u5e35": 12679, "\u5e3e": 12680, "\u56cc": 12681, "\u8519": 12682, "\u4ee2": 12683, "\u78c2": 12684, "\u78fc": 12685, "\u6779": 12686, "\u5dbc": 12687, "\u8a63": 12688, "\u8a5a": 12689, "\u8a42": 12690, "\u8a4b": 12691, "\u567e": 12692, "\u85a6": 12693, "\u7008": 12694, "\u7009": 12695, "\u7027": 12696, "\u92d6": 12697, "\u8ae6": 12698, "\u92f2": 12699, "\u92e5": 12700, "\u6915": 12701, "\u7bd0": 12702, "\u7be4": 12703, "\u9b8f": 12704, "\u604e": 12705, "\u6077": 12706, "\u5bf4": 12707, "\u9bb4": 12708, "\u9bb5": 12709, "\u70b6": 12710, "\u7083": 12711, "\u8b60": 12712, "\u8b5f": 12713, "\u8b48": 12714, "\u6385": 12715, "\u7614": 12716, "\u5554": 12717, "\u8b2c": 12718, "\u829e": 12719, "\u8281": 12720, "\u8b09": 12721, "\u7a54": 12722, "\u7a41": 12723, "\u61f3": 12724, "\u61e2": 12725, "\u7324": 12726, "\u8c63": 12727, "\u730d": 12728, "\u7305": 12729, "\u93fe": 12730, "\u93ec": 12731, "\u93ea": 12732, "\u5c21": 12733, "\u7d07": 12734, "\u7d0c": 12735, "\u7d33": 12736, "\u7d34": 12737, "\u7ad3": 12738, "\u7ace": 12739, "\u6178": 12740, "\u5add": 12741, "\u5aec": 12742, "\u937b": 12743, "\u9343": 12744, "\u9345": 12745, "\u935e": 12746, "\u7d81": 12747, "\u5a52": 12748, "\u5a5b": 12749, "\u9df1": 12750, "\u7541": 12751, "\u9815": 12752, "\u983e": 12753, "\u983d": 12754, "\u90ee": 12755, "\u7c08": 12756, "\u7c32": 12757, "\u9ecb": 12758, "\u9eca": 12759, "\u75f5": 12760, "\u75fd": 12761, "\u59e6": 12762, "\u91d6": 12763, "\u894e": 12764, "\u894a": 12765, "\u8967": 12766, "\u72bb": 12767, "\u729a": 12768, "\u6c6c": 12769, "\u7c93": 12770, "\u7c85": 12771, "\u809e": 12772, "\u8ebc": 12773, "\u61a1": 12774, "\u7450": 12775, "\u63e8": 12776, "\u63d3": 12777, "\u91fc": 12778, "\u8d88": 12779, "\u74d4": 12780, "\u74c7": 12781, "\u74cf": 12782, "\u6373": 12783, "\u635a": 12784, "\u6359": 12785, "\u58c9": 12786, "\u864a": 12787, "\u865c": 12788, "\u916d": 12789, "\u9151": 12790, "\u7f98": 12791, "\u65a3": 12792, "\u585b": 12793, "\u5856": 12794, "\u8faa": 12795, "\u775e": 12796, "\u775c": 12797, "\u7748": 12798, "\u86fd": 12799, "\u7e0d": 12800, "\u9ceb": 12801, "\u77f5": 12802, "\u97b1": 12803, "\u946d": 12804, "\u9787": 12805, "\u9b38": 12806, "\u944f": 12807, "\u8c09": 12808, "\u874f": 12809, "\u8745": 12810, "\u6e52": 12811, "\u9c61": 12812, "\u9c62": 12813, "\u5f6e": 12814, "\u8494": 12815, "\u9134": 12816, "\u7645": 12817, "\u766e": 12818, "\u9718": 12819, "\u7673": 12820, "\u5003": 12821, "\u61b3": 12822, "\u87f0": 12823, "\u9fa3": 12824, "\u7939": 12825, "\u790a": 12826, "\u5ec5": 12827, "\u8d0b": 12828, "\u6f79": 12829, "\u9d46": 12830, "\u9273": 12831, "\u9409": 12832, "\u9411": 12833, "\u941c": 12834, "\u5e46": 12835, "\u715b": 12836, "\u7171": 12837, "\u4e97": 12838, "\u84ce": 12839, "\u671a": 12840, "\u6737": 12841, "\u7819": 12842, "\u780b": 12843, "\u9ae8": 12844, "\u71d8": 12845, "\u9f78": 12846, "\u9f6c": 12847, "\u8569": 12848, "\u8571": 12849, "\u6858": 12850, "\u78a9": 12851, "\u78b8": 12852, "\u91f8": 12853, "\u6080": 12854, "\u60bf": 12855, "\u60a1": 12856, "\u8abd": 12857, "\u911d": 12858, "\u5633": 12859, "\u85ee": 12860, "\u85e1": 12861, "\u85fd": 12862, "\u600b": 12863, "\u9330": 12864, "\u7b1a": 12865, "\u9be3": 12866, "\u9bd1": 12867, "\u9294": 12868, "\u929e": 12869, "\u9287": 12870, "\u8b15": 12871, "\u694c": 12872, "\u8259": 12873, "\u5798": 12874, "\u9b50": 12875, "\u6186": 12876, "\u9b5d": 12877, "\u9b5e": 12878, "\u9b75": 12879, "\u9202": 12880, "\u9237": 12881, "\u9235": 12882, "\u5c57": 12883, "\u5c78": 12884, "\u7d5b": 12885, "\u6ac0": 12886, "\u6137": 12887, "\u5b12": 12888, "\u5b10": 12889, "\u5b27": 12890, "\u5b30": 12891, "\u7a13": 12892, "\u73ff": 12893, "\u939f": 12894, "\u93bd": 12895, "\u6a4a": 12896, "\u54b0": 12897, "\u5493": 12898, "\u7de7": 12899, "\u7df1": 12900, "\u5a8e": 12901, "\u9f38": 12902, "\u9f27": 12903, "\u9f24": 12904, "\u7aa2": 12905, "\u9848": 12906, "\u9a4f": 12907, "\u726c": 12908, "\u9583": 12909, "\u7c44": 12910, "\u7c71": 12911, "\u8a2e": 12912, "\u9333": 12913, "\u6bdf": 12914, "\u6be0": 12915, "\u6bed": 12916, "\u83f3": 12917, "\u6229": 12918, "\u99f6": 12919, "\u5a10": 12920, "\u5a1e": 12921, "\u7520": 12922, "\u52db": 12923, "\u6c01": 12924, "\u908f": 12925, "\u6c2d": 12926, "\u6b5d": 12927, "\u9ea7": 12928, "\u59bc": 12929, "\u758a": 12930, "\u997b": 12931, "\u8e46": 12932, "\u5276": 12933, "\u64cf": 12934, "\u96e7": 12935, "\u8eea": 12936, "\u9197": 12937, "\u8633": 12938, "\u8a62": 12939, "\u646c": 12940, "\u6462": 12941, "\u9f93": 12942, "\u644c": 12943, "\u644d": 12944, "\u6457": 12945, "\u8140": 12946, "\u588a": 12947, "\u7496": 12948, "\u7493": 12949, "\u57e9": 12950, "\u6e9b": 12951, "\u6e9d": 12952, "\u6eae": 12953, "\u5161": 12954, "\u515e": 12955, "\u7e61": 12956, "\u7e69": 12957, "\u7e43": 12958, "\u6e3e": 12959, "\u870c": 12960, "\u657f": 12961, "\u655c": 12962, "\u9740": 12963, "\u974c": 12964, "\u8c5e": 12965, "\u6fb2": 12966, "\u6f8a": 12967, "\u87b7": 12968, "\u87a1": 12969, "\u87a4": 12970, "\u5064": 12971, "\u796a": 12972, "\u96ac": 12973, "\u8cd7": 12974, "\u5f32": 12975, "\u57ec": 12976, "\u8a7d": 12977, "\u6f3d": 12978, "\u8435": 12979, "\u8408": 12980, "\u79da": 12981, "\u625f": 12982, "\u625d": 12983, "\u9449": 12984, "\u8d7c": 12985, "\u68b7": 12986, "\u68a5": 12987, "\u688b": 12988, "\u84b0": 12989, "\u84ae": 12990, "\u8498": 12991, "\u848f": 12992, "\u91e7": 12993, "\u9e89": 12994, "\u9e8d": 12995, "\u9d2a": 12996, "\u9d31": 12997, "\u9d0a": 12998, "\u9d05": 12999, "\u9d01": 13000, "\u9d11": 13001, "\u67ea": 13002, "\u7139": 13003, "\u62fb": 13004, "\u5e3a": 13005, "\u8505": 13006, "\u6819": 13007, "\u675b": 13008, "\u6764": 13009, "\u6778": 13010, "\u718e": 13011, "\u8a75": 13012, "\u957c": 13013, "\u69a2": 13014, "\u973c": 13015, "\u8593": 13016, "\u85bd": 13017, "\u973b": 13018, "\u7b57": 13019, "\u60c1": 13020, "\u60c3": 13021, "\u60cd": 13022, "\u7003": 13023, "\u7028": 13024, "\u8aee": 13025, "\u92ce": 13026, "\u5d30": 13027, "\u6916": 13028, "\u6927": 13029, "\u9bbf": 13030, "\u7bde": 13031, "\u605e": 13032, "\u9bb1": 13033, "\u9bad": 13034, "\u70a0": 13035, "\u7090": 13036, "\u8b64": 13037, "\u8b65": 13038, "\u8b47": 13039, "\u6a88": 13040, "\u761a": 13041, "\u557a": 13042, "\u5b7e": 13043, "\u8286": 13044, "\u8b18": 13045, "\u61ce": 13046, "\u9b1e": 13047, "\u7323": 13048, "\u7306": 13049, "\u93c5": 13050, "\u93c0": 13051, "\u93f0": 13052, "\u6a04": 13053, "\u6a33": 13054, "\u7ad0": 13055, "\u7af3": 13056, "\u615b": 13057, "\u5acd": 13058, "\u7382": 13059, "\u9379": 13060, "\u937f": 13061, "\u7d92": 13062, "\u6b94": 13063, "\u6ba9": 13064, "\u545a": 13065, "\u5a70": 13066, "\u9dcb": 13067, "\u62f0": 13068, "\u7210": 13069, "\u532f": 13070,
[...]
